[PAD]
[UNK]
[CLS]
[SEP]
[MASK]
[unused0]
[unused1]
[unused2]
[unused3]
[unused4]
[unused5]
[unused6]
[unused7]
[unused8]
[unused9]
[unused10]
[unused11]
[unused12]
[unused13]
[unused14]
[unused15]
[unused16]
[unused17]
[unused18]
[unused19]
[unused20]
[unused21]
[unused22]
[unused23]
[unused24]
[unused25]
[unused26]
[unused27]
[unused28]
[unused29]
[unused30]
[unused31]
[unused32]
[unused33]
[unused34]
[unused35]
[unused36]
[unused37]
[unused38]
[unused39]
[unused40]
[unused41]
[unused42]
[unused43]
[unused44]
[unused45]
[unused46]
[unused47]
[unused48]
[unused49]
[unused50]
[unused51]
[unused52]
[unused53]
[unused54]
[unused55]
[unused56]
[unused57]
[unused58]
[unused59]
[unused60]
[unused61]
[unused62]
[unused63]
[unused64]
[unused65]
[unused66]
[unused67]
[unused68]
[unused69]
[unused70]
[unused71]
[unused72]
[unused73]
[unused74]
[unused75]
[unused76]
[unused77]
[unused78]
[unused79]
[unused80]
[unused81]
[unused82]
[unused83]
[unused84]
[unused85]
[unused86]
[unused87]
[unused88]
[unused89]
[unused90]
[unused91]
[unused92]
[unused93]
[unused94]
[unused95]
[unused96]
[unused97]
[unused98]
[unused99]
[unused100]
[unused101]
[unused102]
[unused103]
[unused104]
[unused105]
[unused106]
[unused107]
[unused108]
[unused109]
[unused110]
[unused111]
[unused112]
[unused113]
[unused114]
[unused115]
[unused116]
[unused117]
[unused118]
[unused119]
[unused120]
[unused121]
[unused122]
[unused123]
[unused124]
[unused125]
[unused126]
[unused127]
[unused128]
[unused129]
[unused130]
[unused131]
[unused132]
[unused133]
[unused134]
[unused135]
[unused136]
[unused137]
[unused138]
[unused139]
[unused140]
[unused141]
[unused142]
[unused143]
[unused144]
[unused145]
[unused146]
[unused147]
[unused148]
[unused149]
[unused150]
[unused151]
[unused152]
[unused153]
[unused154]
[unused155]
[unused156]
[unused157]
[unused158]
[unused159]
[unused160]
[unused161]
[unused162]
[unused163]
[unused164]
[unused165]
[unused166]
[unused167]
[unused168]
[unused169]
[unused170]
[unused171]
[unused172]
[unused173]
[unused174]
[unused175]
[unused176]
[unused177]
[unused178]
[unused179]
[unused180]
[unused181]
[unused182]
[unused183]
[unused184]
[unused185]
[unused186]
[unused187]
[unused188]
[unused189]
[unused190]
[unused191]
[unused192]
[unused193]
[unused194]
[unused195]
[unused196]
[unused197]
[unused198]
[unused199]
[unused200]
[unused201]
[unused202]
[unused203]
[unused204]
[unused205]
[unused206]
[unused207]
[unused208]
[unused209]
[unused210]
[unused211]
[unused212]
[unused213]
[unused214]
[unused215]
[unused216]
[unused217]
[unused218]
[unused219]
[unused220]
[unused221]
[unused222]
[unused223]
[unused224]
[unused225]
[unused226]
[unused227]
[unused228]
[unused229]
[unused230]
[unused231]
[unused232]
[unused233]
[unused234]
[unused235]
[unused236]
[unused237]
[unused238]
[unused239]
[unused240]
[unused241]
[unused242]
[unused243]
[unused244]
[unused245]
[unused246]
[unused247]
[unused248]
[unused249]
[unused250]
[unused251]
[unused252]
[unused253]
[unused254]
[unused255]
[unused256]
[unused257]
[unused258]
[unused259]
[unused260]
[unused261]
[unused262]
[unused263]
[unused264]
[unused265]
[unused266]
[unused267]
[unused268]
[unused269]
[unused270]
[unused271]
[unused272]
[unused273]
[unused274]
[unused275]
[unused276]
[unused277]
[unused278]
[unused279]
[unused280]
[unused281]
[unused282]
[unused283]
[unused284]
[unused285]
[unused286]
[unused287]
[unused288]
[unused289]
[unused290]
[unused291]
[unused292]
[unused293]
[unused294]
[unused295]
[unused296]
[unused297]
[unused298]
[unused299]
[unused300]
[unused301]
[unused302]
[unused303]
[unused304]
[unused305]
[unused306]
[unused307]
[unused308]
[unused309]
[unused310]
[unused311]
[unused312]
[unused313]
[unused314]
[unused315]
[unused316]
[unused317]
[unused318]
[unused319]
[unused320]
[unused321]
[unused322]
[unused323]
[unused324]
[unused325]
[unused326]
[unused327]
[unused328]
[unused329]
[unused330]
[unused331]
[unused332]
[unused333]
[unused334]
[unused335]
[unused336]
[unused337]
[unused338]
[unused339]
[unused340]
[unused341]
[unused342]
[unused343]
[unused344]
[unused345]
[unused346]
[unused347]
[unused348]
[unused349]
[unused350]
[unused351]
[unused352]
[unused353]
[unused354]
[unused355]
[unused356]
[unused357]
[unused358]
[unused359]
[unused360]
[unused361]
[unused362]
[unused363]
[unused364]
[unused365]
[unused366]
[unused367]
[unused368]
[unused369]
[unused370]
[unused371]
[unused372]
[unused373]
[unused374]
[unused375]
[unused376]
[unused377]
[unused378]
[unused379]
[unused380]
[unused381]
[unused382]
[unused383]
[unused384]
[unused385]
[unused386]
[unused387]
[unused388]
[unused389]
[unused390]
[unused391]
[unused392]
[unused393]
[unused394]
[unused395]
[unused396]
[unused397]
[unused398]
[unused399]
[unused400]
[unused401]
[unused402]
[unused403]
[unused404]
[unused405]
[unused406]
[unused407]
[unused408]
[unused409]
[unused410]
[unused411]
[unused412]
[unused413]
[unused414]
[unused415]
[unused416]
[unused417]
[unused418]
[unused419]
[unused420]
[unused421]
[unused422]
[unused423]
[unused424]
[unused425]
[unused426]
[unused427]
[unused428]
[unused429]
[unused430]
[unused431]
[unused432]
[unused433]
[unused434]
[unused435]
[unused436]
[unused437]
[unused438]
[unused439]
[unused440]
[unused441]
[unused442]
[unused443]
[unused444]
[unused445]
[unused446]
[unused447]
[unused448]
[unused449]
[unused450]
[unused451]
[unused452]
[unused453]
[unused454]
[unused455]
[unused456]
[unused457]
[unused458]
[unused459]
[unused460]
[unused461]
[unused462]
[unused463]
[unused464]
[unused465]
[unused466]
[unused467]
[unused468]
[unused469]
[unused470]
[unused471]
[unused472]
[unused473]
[unused474]
[unused475]
[unused476]
[unused477]
[unused478]
[unused479]
[unused480]
[unused481]
[unused482]
[unused483]
[unused484]
[unused485]
[unused486]
[unused487]
[unused488]
[unused489]
[unused490]
[unused491]
[unused492]
[unused493]
[unused494]
[unused495]
[unused496]
[unused497]
[unused498]
[unused499]
이
.
다
는
지
고
하
가
에
을
한
도
로
은
기
의
들
대
사
아
라
나
서
인
자
해
리
어
시
정
국
를
수
?
니
으
만
보
,
부
일
있
그
0
면
주
게
전
1
ㅋ
원
제
장
거
구
상
문
야
2
!
했
조
안
과
스
당
요
민
~
데
네
것
무
개
진
선
공
신
세
성
마
적
중
경
소
동
내
말
여
재
비
위
미
우
치
없
회
모
할
화
생
유
'
오
간
통
까
3
관
금
와
년
업
려
냐
되
명
계
산
저
건
러
5
연
단
교
등
발
실
용
더
)
(
분
드
바
차
방
영
4
트
입
행
역
터
운
체
때
었
심
학
같
반
난
된
본
권
남
식
겠
불
감
히
물
못
람
런
각
임
파
6
음
노
청
출
작
래
강
현
직
않
르
9
달
8
처
박
표
후
최
받
두
매
속
법
력
양
월
"
던
7
합
천
결
호
살
며
예
타
집
너
준
북
레
설
올
김
근
잘
점
배
알
질
새
번
판
종
령
짜
O
프
·
왜
추
많
외
%
피
포
았
급
디
울
애
함
버
망
걸
군
참
먹
능
검
석
태
열
좋
친
크
증
언
쓰
또
따
형
날
격
투
른
든
키
누
총
좀
린
승
약
평
억
목
글
씨
품
빨
줄
맞
찰
독
습
론
놈
확
초
뭐
럼
특
광
벌
환
책
랑
활
테
편
복
끼
돈
절
변
렇
온
토
됐
란
길
코
병
죽
봐
료
록
창
돌
죄
좌
앙
님
쳐
족
잡
악
넘
황
-
순
베
돼
막
머
육
손
져
담
ㅎ
술
워
앞
였
별
카
짓
듯
ㅉ
S
얼
느
루
삼
련
빠
철
될
냥
늘
향
희
졌
항
규
갈
필
협
겨
충
험
송
탄
극
놓
축
답
범
패
ㅡ
C
싶
폭
택
뒤
닌
께
응
눈
름
럽
취
힘
백
곳
혜
폐
깨
긴
밝
욕
채
립
존
티
몰
메
량
접
T
색
댓
율
A
먼
핵
높
완
쟁
슨
쪽
허
웃
착
브
싸
K
끝
왔
^
B
림
팔
견
락
켜
류
ㅠ
움
엔
골
득
획
ㆍ
갱
렸
익
논
찬
침
페
플
탈
혼
홍
퍼
죠
찾
녀
윤
떨
휴
G
징
엄
큰
뉴
혁
I
났
농
e
볼
혔
떠
례
봉
뭔
혀
퇴
굴
o
객
틀
꼴
M
믿
커
효
L
귀
뿐
꾸
써
꺼
즈
떻
밀
측
릴
P
케
갖
잖
찍
밖
a
센
D
갔
똑
똥
줘
팀
액
t
딱
및
염
놀
싫
m
융
얘
쇼
층
갑
i
s
ㅅ
클
E
;
찌
압
째
랜
n
훈
꼬
뽑
블
/
십
션
풀
풍
률
몇
큼
끌
붙
왕
덕
슬
뻔
팅
균
뇌
값
둘
텐
암
밥
롯
N
F
혹
숨
척
r
랄
*
봤
빼
폰
숙
첫
짱
념
ㅜ
꼭
낸
핑
뭘
옥
딸
탓
닥
츠
ㅈ
잔
=
즘
쳤
c
끄
욱
ㅇ
V
맛
곡
몸
잠
ㄴ
헌
궁
탁
겁
떤
낮
털
멍
뜻
씩
냈
ㄱ
랐
젠
괴
듣
>
넣
럴
쉬
낙
<
셔
흥
쌍
쉽
ㄷ
l
맨
칠
ㅂ
k
즌
략
걱
셨
섭
널
혐
땅
쓸
엇
솔
룹
램
뜨
졸
겼
뛰
잇
g
둥
꾼
:
납
킨
덜
빈
홈
쓴
짝
쁜
콘
얻
슈
캐
R
ㄹ
맡
텔
렴
맹
혈
깝
힌
템
딴
쩌
롭
넷
쿠
픽
촉
삶
즐
맘
엘
벽
빌
휘
춘
꿈
챙
칭
둔
줬
썩
웠
d
킹
짐
첩
넌
U
벤
읽
h
멀
쥐
링
쩝
곤
헤
H
뤄
곧
렵
팬
탕
튼
딩
섰
흔
b
젊
컨
빵
u
됨
델
깔
팩
겹
웅
웨
앉
촛
묻
푸
w
펀
턴
p
펼
닭
랍
촌
흐
뿌
좃
칼
싱
멸
춰
숭
쇄
뢰
깐
맥
홀
첨
낼
꽃
`
벗
쯤
뀌
섬
녹
뒷
닐
헛
늦
W
괜
캠
묵
랬
멋
X
x
콩
밤
흘
빛
몽
J
즉
봄
ㄲ
픈
칙
낫
빙
꼽
떼
삭
깜
켰
찮
킬
닝
㎡
컬
밑
∼
쁘
y
셈
싼
냄
롱
렌
떡
닫
릇
잃
땐
v
퀴
줌
됩
옷
낌
슴
슷
싹
ㅣ
콜
엉
놔
춤
컵
끊
뷰
흡
쯧
걷
덩
걍
꿔
+
둑
옆
훨
흑
탑
겪
옛
옮
릭
컴
씬
겟
낳
껴
맙
빚
랙
깊
냉
렬
뜯
렀
잊
끈
벨
쩔
햇
끔
옹
벼
잉
뭉
짖
럭
힐
쌀
헬
놨
탐
펴
껄
뮤
긋
꼼
폴
&
늙
씀
튜
f
#
끗
멘
껏
쏟
쌓
묘
덧
덮
둬
꿀
릿
굳
읍
낭
쑈
옳
렉
넓
켓
겐
듬
헐
봅
똘
붕
ㅁ
땜
겸
촬
셀
갤
샤
썼
젤
톡
쪼
㎞
빡
튀
앗
녕
롤
랫
흉
쏘
앤
쾌
렁
빅
긍
ㅆ
ㅊ
눠
펜
닙
톤
핀
콤
몬
떳
뷔
Y
젝
밟
쉐
톱
ㅐ
룩
덤
씹
낀
딜
j
칸
훠
벙
쇠
듭
앱
텍
셋
닉
폼
돕
넥
엑
므
띄
큐
팽
뚜
냅
엿
엽
낯
횡
섹
윈
훼
낄
엠
퓨
숫
쉴
삽
깡
뱅
훌
맺
푼
릉
랭
짧
돋
댕
뇬
뼈
짤
탱
밭
틴
셜
닮
곽
쫌
늠
좆
녁
쟤
륜
퉤
🐕
봇
룡
@
쿨
눔
틱
뿔
갓
찔
멤
옴
댄
륙
멈
왠
챔
뻥
덴
앵
뚱
쩍
쫄
뚝
섯
씌
괄
💙
윗
뒀
숲
눌
찐
찢
룸
좁
삐
밍
컷
뺏
턱
옵
ㅏ
쏠
앨
핸
뽕
닷
밴
팍
땡
잣
뚫
륭
몫
Q
갚
룬
젓
묶
👍
쫓
땀
곱
됬
겄
틈
꼰
띠
췄
랏
왼
굿
뜬
깃
믄
랩
렷
룰
빤
벅
쎄
틸
쩡
팡
굶
픔
뱉
뻘
쿄
릎
줍
쭉
빕
왈
굽
섞
썬
쑤
슥
ㅌ
뇨
듀
겉
늬
웬
펙
곰
흠
]
엮
펑
ㅗ
닦
밸
랴
젖
팎
빗
샘
녔
[
쏴
콧
컸
딘
뀐
븐
쯔
궤
궐
깽
껍
샀
껀
뉘
엎
믹
깎
밌
웹
쁨
칫
꼈
꺾
샷
꽁
뱃
뻐
씻
텅
샌
中
빽
얀
뒈
캬
붓
쌩
뜰
美
셰
##.
##이
##는
##다
##을
##하
##고
##은
##에
##들
##가
##를
##도
##,
##?
##한
##지
##으로
##의
##게
##로
##에서
##했
##면
##만
##네
##어
##과
##!
##냐
##아
##거
##기
##적
##해
##..
##)
##나
##(
##인
##년
##었
##일
##겠
##와
##되
##할
##라
##'
##는데
##~
아니
##까지
##라고
##야
##지만
ㅋㅋ
##자
##·
국민
사람
##니
##주
##았
##던
##한다
##것
##있
##다고
##보
##원
우리
##서
##다는
##%
나라
##에게
##면서
##월
##된
##며
##부터
##시
한국
##명
일본
이런
중국
##말
대통령
##이나
##으면
##대
##"
##보다
진짜
생각
정부
##개
##라는
##당
##억
문재인
##성
##같
##나라
##없
지금
##화
문제
##됐
##때
##씨
10
북한
##...
##건
미국
때문
한다
##여
##해야
##해라
##세요
##ㅋㅋ
##된다
##해서
조국
##~~
ㅋㅋㅋ
##인데
대한
그냥
##받
##네요
위해
##님
이번
만들
인간
##음
##수
##안
##한테
##권
이제
##듯
##습니다
지난
##-
##는지
경제
##번
정치
##처럼
##좀
검찰
##라도
그렇
민주당
하나
##합니다
대한민국
##놈
지역
다른
서울
모르
댓글
##였
##사람
##함
무슨
##어서
##위
대표
기사
정말
너무
시작
함께
##2
정신
필요
통해
이상
가능
##1
국가
모두
##는다
정권
##분
아직
기업
##임
지난해
가장
세계
##죠
##차
저런
##줄
##내
20
많이
##인가
##재앙
##입니다
##길
조사
나오
##중
사실
지원
##3
##될
쓰레기
위한
올해
경우
그러
시장
국내
##!!
어디
밝혔
세금
수준
##구나
다시
OOO
역시
정도
의원
##돼
##도록
##니까
##엔
##사
##다가
이후
##요
최근
자기
빨갱이
이게
30
관련
##걸
##질
사업
##전
##인지
특히
상황
어떻
##시키
##마
좌파
##간
후보
경기
누가
##한당
따라
제발
그런
대구
##어야
여자
##아서
##든
##먹
진행
현재
사회
수사
이렇
##조
##빨
100
##??
대해
잘못
소리
된다
여기
##어요
이날
##시장
아이
##천
시간
##으니
##려고
계획
기자
##놓
계속
##치
당신
##5
모든
##형
##시간
경찰
청와대
##해도
다음
제대로
사용
##랑
##짓
예정
##대로
결과
박근혜
언론
##~~~
지지
누구
학생
보이
이유
그리고
##거나
##호
##은데
그럼
12
자유
##ㅋㅋㅋ
선거
얼마나
##는구나
##살
##4
신천지
운영
기록
##달
바로
##싶
11
##않
아닌
이미
그러나
교육
처음
##군
##기업
그만
시민
삼성
세상
공개
##아야
투자
##상
##쓰
해야
##더니
다양
가족
##데
##이랑
##다면
##을까
가지
##오
##아니
##나요
##/
남자
##ㅋ
개발
중요
모습
##어라
##회
##....
탄핵
##정부
##뿐
##란
미친
정책
최고
##정권
##곳
##씩
장관
국회
해라
추진
대상
##국민
영화
마음
학교
여성
선수
관심
50
자리
결국
발표
##봐
##어도
##긴
##지역
따르
내년
##세
##째
조작
금융
전국
##새끼
먼저
##조사
##넘
얘기
어떤
가격
보수
기대
교수
##점
감독
아주
관계자
마스크
##구만
정상
이해
##한다고
##정도
##부
##라면
해외
재앙
직접
언제
회사
사건
이러
자신
역사
결정
그래서
##아라
평가
반대
참여
보내
개돼지
총선
없이
구속
부산
이용
##률
##실
##구
주장
##러
확인
제품
방송
빨리
##잖아
15
준비
##다니
가운데
피해
기준
설명
회장
##경제
##봐라
요즘
##문
얼굴
코로나
부모
##>
전망
보여
##6
한심
##스럽
이름
대학
##베
마련
여론
개인
##돈
당시
새끼
같이
##팀
규모
##사업
국회의원
##좋
미래
인정
이건
##배
##제
책임
발생
##밖에
내용
예상
이야기
##마다
##으며
세월
현실
##가지
##센터
ㅉㅉ
기술
증가
근데
힘들
토착
##법
포함
보인다
주민
##에선
머리
사고
##소리
가짜
일부
##별
동안
어느
수도
##못
40
국제
광주
설치
걱정
##알
##7
##개월
활동
상대
전체
##신
##8
하루
제공
사진
민주
ㅎㅎ
##트
입장
이거
문화
##애
더불
자식
공무원
##한다는
절대
...
해결
김정은
응원
##층
자체
이것
판매
인사
확대
##때문
##깨
##자의
행사
최대
일반
아닌가
##계
오후
서비스
##대통령
##단체
성공
##텐데
조선
##업체
물론
요구
과정
아베
사랑
선동
본인
또한
##잡
##국의
직원
##레기
분석
##장관
등이
아파트
##장
해도
만든
추가
##던데
생산
##대표
18
##등
지적
검사
##셨
관리
달창
새로운
무능
대부분
##노
##딱
오늘
##빠
##생
아들
##집
지방
##선
##위원회
##아요
그게
한편
강화
##뉴스
##%)
등의
의미
정의
##는가
건강
##하나
##끼
##같이
사이
연구
처벌
거짓말
적폐
##회의
똑같
##비
인천
##신의
##운동
아무
대비
완전
나가
정보
##려는
##9
활용
효과
선택
성장
뉴스
트럼프
그래도
##명의
16
##날
##꺼
대단
출신
##건데
##율
##ㅅ
사과
다니
##급
##봤
##개혁
그동안
##=
문재
전부
만나
상태
##의원
##달러
시즌
##라며
프로그램
만큼
도대체
합니다
##용
전문
나왔
비교
##기관
##꼴
수출
이젠
나경원
##ㄷ
노력
13
적용
##두
##탓
LG
아님
그래
##진
##파
##이상
##더라
개혁
##누리
14
무엇
부동산
적극
환경
비판
##새
그것
##왜구
기회
도움
##이란
능력
##건가
25
위해서
강조
들어가
고객
평균
대선
##팔
권력
##국가
구성
도시
##타
현대
##기사
판단
업체
##지요
불법
사기
대가리
방법
감사
유지
##인간
##버리
현장
##선거
지난달
공부
지랄
지지율
스스로
올리
##고도
만드
##키
기간
##건지
주요
##해야지
##교육
##도시
보도
너희
##맞
##나오
생활
더욱
선정
행동
진정
인기
일자리
##대의
시키
우려
개선
기존
친구
17
집단
비롯
사퇴
상승
우선
##라니
중심
##바
시대
황교안
역할
분야
승리
주변
작품
전문가
촛불
배우
##사회
사장
외국인
##더
##잘
의사
예산
전쟁
무조건
##없이
차지
의견
방문
##^^
기본
치료
##개발
##인의
##시설
입국
##기에
투표
산업
라고
19
나이
한다는
##많
##문화
60
공동
글로벌
조성
여러
경험
의혹
##!!!
해당
다르
##0
그리
논란
대책
##남
##쯤
어찌
나쁜
거리
부족
실시
인생
경쟁
##나가
##학교
출시
병원
거기
집중
조금
##까
##식
부담
난리
##왜
노조
공급
##생각
##장의
확보
유럽
범죄
SK
반드시
도입
##으면서
##왔
21
##바리
저렇
마지막
브랜드
##경기
통합
앞서
대신
24
네이버
외교
각각
얼마
인터넷
결혼
오전
##려
##m
매출
영향
평화
처리
대회
##께
상품
아무리
##그룹
당장
##프로
##답
야당
##려면
이전
롯데
어렵
##됨
##그
대해서
반면
##산업
자동차
분위기
인상
목표
변화
환자
##깨문
방식
특별
위험
문죄
전략
##꾼
거의
과거
##:
서민
여행
운동
##문제
지속
##∼
대응
개소리
서로
##대회
##시켜
해서
진보
##감
##남불
##만큼
그런데
##시민
##지원
내놓
독재
나온다
구조
##줬
70
진실
대체
##은행
대형
더러운
당연
자연
영업
열린
증거
인권
불쌍
##끼리
핵심
부정
발전
##정책
제일
그대로
건설
##한데
혐의
열심히
혼자
피해자
군대
궁금
업무
안전
개최
표현
부분
##관리
수입
관계
임명
주식
친일파
사형
분양
알려졌
##병원
##시대
돼지
유시민
##났
비리
미세먼지
경기도
##활동
##죽
참석
##조작
수익
공연
기억
##더라도
역대
행복
##속
경영
정당
주목
22
판사
##리그
중국인
##단
희망
방안
뻔뻔
각종
심각
노인
##%,
국정
은행
##ㅂ
##세계
게임
나타났
달리
##10
공정
##국
위기
망하
정치인
##뭐
조직
오히려
##참
원래
기능
돌아가
조선일보
##준
주제
##기술
공산당
##척
외국
없애
양심
##어야지
시행
신경
차이
떠나
청년
##봐야
짱깨
공격
비슷
소비자
##ㄹ
##후
##분기
23
한다고
지키
##거리
나온
##충
비해
##정치
##수준
일단
##.....
##진짜
##위원
우승
합의
평생
본격
##자는
엄마
ㅠㅠ
##산
대출
##주택
200
한국인
목소리
##갔
작년
주택
##값
바보
화이팅
##보이
웃기
발언
##수처
바뀌
논리
##통
간첩
가치
연기
총리
자랑
단체
친일
진출
따른
공식
실제
신고
존재
무시
##벌
방침
##던가
떨어지
##플
##글
오래
삼성전자
제기
거짓
전화
경남
##고의
##ㄱ
올랐
감소
이명박
##래
규제
##아도
전혀
어쩌
의료
##18
신청
차량
##로부터
##난
##ㆍ
공장
##졌
##케
느낌
높이
울산
기부
##쪽
##당의
##박
##겟
우한
사태
26
##민주당
불과
당하
윤석열
가진
경북
##회사
제외
마라
그때
아버지
##너
##30
보호
노무현
교회
여당
건물
##승
##고는
작가
##테
27
지급
##한국
오르
시스템
논의
전라도
선발
중앙
프로
인물
##해요
그걸
보였
안정
항상
조선족
광고
원인
##미
검토
##수사
법무부
80
반성
고려
자격
##앙이
통과
강남
##금지
월급
##심
소속
모델
도와
##금융
자살
금지
위치
##㎡
28
서울대
디자인
해야지
##냐고
드라마
##가능
성과
대화
진심
포기
ㅡㅡ
어차피
무대
##가구
계약
##정보
봐라
제시
제도
##소
민주주의
라는
##리
##생활
공간
종교
고민
불매
스마트폰
##투자
2012
독일
##자고
혜택
2010
##ㅉㅉ
거래
하락
##ㅡ
협력
유명
비용
작업
내부
##롭
##입
##여자
##우리
##방송
할머니
일정
##와의
의심
하늘
최순
동시
무섭
힘내
1000
심판
조치
중소기업
영국
##위원장
공감
종북
고용
범죄자
미사일
연속
##잖
교사
시기
매일
##???
##편
소득
반영
제목
##관계
##난다
##싫
변호사
##총장
앞두
인구
나서
피부
바람
죽이
설립
질문
##온
시절
##북
##갈
집회
취업
TV
사례
바꾸
자꾸
보유
저러
##드
택시
어려운
강력
최종
차라리
최초
엄청
온라인
##20
당연히
아시아
##ㄴ
##발
2014
##느냐
##종
##차리
여부
나섰
관광
남북
총장
##초
확정
전했
등장
##공사
올림픽
행정
영상
300
으로
복지
공공
2011
성적
거지
불리
반일
남편
##빵
나중
훨씬
사전
이미지
나올
판결
##가족
##부대
한마디
열리
##부의
##&
##보험
장기
러시아
실적
##면서도
사상
##저
##다며
##당하
##자리
##본
지정
중인
연결
남성
홍보
##와서
맨날
공사
괜찮
##쇼
출연
##찍
멍청
##로서
##국당
##던지
집값
태극기
영어
고생
##검사
##일까
구매
##으니까
##론
참가
500
벌써
반응
2000
요청
인근
##느라
광화문
체험
여전히
2009
##집단
제작
파악
29
재산
2008
살인
발견
감옥
##OOO
폐지
2015
2013
매국노
추천
바이러스
##~~~~
중단
노래
가입
눈치
##조선
##연금
카드
대변인
강제
구축
혁신
확실
인수
다만
##킹
제주
아냐
##ㅡㅡ
전달
##죄
##하고
그거
##능력
동네
양아치
장애
솔직히
소개
##대가리
유치
##동안
##세력
실패
당선
##25
##사건
이르
특검
출마
또는
##라서
버리
##일본
기관
##만의
생겼
헛소리
##니깐
비난
매년
자료
##줘야
불안
이곳
투입
이놈
업계
##성의
줄이
대전
생기
##앞
사망
거부
마치
인해
베트남
자금
미쳤
..
특징
따로
##믿
법원
기획
활성
음악
##ㅠㅠ
시설
##ㅈ
지나
우수
개판
##세금
근무
치매
음식
느끼
##사의
최소
마무리
##쓰레기
~~
##패
서울시
##합시다
협상
매우
자녀
안철수
아예
차례
전통
개정
순간
공천
선생
절반
고통
##물
도로
##스러운
신뢰
갈등
마을
##직
무식
선물
본다
종합
원전
도전
어린이
##ㅎㅎ
##후보
민간
##공원
31
소재
##본부
의지
확진
##규모
제한
##조차
##더만
90
상식
마시
수요
##만들
전환
찬성
공약
##짜리
##ㅠ
에너지
##+
##야지
비중
##표
꼬라지
##이익
할인
비율
펀드
##아야지
##든지
이익
내리
확산
가정
향후
마찬가지
##제도
부르
고소
전시
눈물
가만히
측은
밝히
##주의
갑자기
인식
가슴
제출
느그
이달
##람
##져
불편
나베
목적
주가
##막
사회주의
문통
프랑스
이기
뭔가
금리
##댓글
##제품
평소
시위
채용
##듯이
위원장
방향
조용히
##빨갱이
##대학
실제로
ㅎㅎㅎ
무료
##계획
청문회
##중국
부탁
걸리
시도
##줘라
주도
전남
##선수
미치
##석
이럴
##`
전년
약속
##스
통일
알려
깨끗
안타깝
전기
##판
시험
##시켜라
아닌데
##불
##또
지지자
##도의
기초
##봐도
##공개
훈련
기분
##겁니다
정리
박정희
단지
그룹
키우
과학
그랬
임금
재정
##사고
생긴
예전
##아이
지구
회복
더럽
회의
소비
##기간
원숭이
주사
신규
##땐
##왕
분명
알바
규정
바라
##간다
##자금
인터뷰
현지
똑같이
답답
나머지
유통
한나라당
##포인트
##평가
축구
정신병자
##로운
에휴
연예인
부부
##이런
속도
과연
청소년
이끌
하네
재판
나와
에서
아침
차별
달러
##할까
##협회
인증
점점
##복지
##볼
##과정
정의당
목사
수술
##니다
##위기
거쳐
##돼지
근거
전형
##으나
정확
개념
청원
##루
그건
매장
늘어나
몰랐
기생충
여야
##민주
감정
제안
신문
구체
##정신
##노조
에라이
저거
분노
한반도
##준다
출전
##서비스
보험
수가
##관
저게
반발
자빠졌
언급
##시켰
##천만
경쟁력
##약
수상
인도
조심
어쩔
명단
아가리
일제
##쳐먹
##그러
어린
바랍니다
억울
유일
##지구
졸업
##강
목숨
##인가요
이벤트
힘든
##으로서
##무
바른
##수의
##시킨
##에요
임기
생명
봐도
어휴
감염
공산주의
##십
덕분
시진핑
##방
스타
##친
##는데도
2007
##시켜야
위반
##병
##채
저것
버스
일어나
##펀드
보고
봉사
부터
차원
전자
민족
덧붙였
##업계
현대차
회원
##뽑
##세대
##잇
이유로
##통합
주말
##가격
자주
감성
까지
국토
##의회
막말
저기
##회담
2016
##반
민노총
부문
장난
##언론
애초
소통
##진다
##그네
미리
고발
올려
여름
소설
이란
민심
##란다
##ㅎ
모양
수업
취소
구라
보장
가득
##상의
초등
말씀
##폭
입니다
##올림픽
바다
선언
단계
촬영
뿌리
##동의
##거든
KBS
통한
부인
##학년
##다는데
##교수
노동
##조정
외치
##마을
##15
##듣
##됩니다
##본의
전력
##덜
챙기
조정
부끄럽
기반
그럴
##녀
전용
그저
전두환
##대상
아래
그나마
의도
조중동
이어지
인재
ㅉㅉㅉ
제정신
아무것
##공항
구입
악마
##줘
##자식
처럼
##환경
살리
##공장
이리
유리
##카드
동물
기소
##걸로
##조국
교체
##정의
수치
##㎞
강한
이래서
##을지
시원
집안
....
진중권
##보내
의무
##한다면
##열
소식
스포츠
짜증
지시
현상
구분
독립
##퍼
연간
무기
동원
해석
##거라
협의
우파
말아먹
오른
이상의
축제
보상
역겹
##처
이걸
##보수
겨울
##골
홍콩
절차
쳐먹
##북한
원칙
인성
##폐렴
단어
수원
빠르
공산
동의
홈페이지
냄새
뭔지
바란다
손해
##으로부터
##좌파
호텔
달성
계기
가구
비례
##가량
##는다고
주인
##세상
아깝
홍준표
##악의
등록
##단지
벌이
관광객
##슬
집권
창업
나눠
##지금
##업의
##측
다행
^^
위안부
싸우
담당
연출
부상
모바일
사법
##군요
##D
##등급
KT
배치
##통신
최저임금
인력
헌법
늘리
이어
애플
연장
##고자
군인
주로
완전히
나타나
일상
##기자
##구조
그림
프로젝트
직장
##기의
##지도
##단계
##박근혜
호구
장사
실력
##햇
##금리
부자
##시의
자원
##쳐
##계의
세력
허용
##했으며
이루
##땅
똑바로
충분히
##대책
어머니
단식
어려움
상당
외부
##집회
가수
통계
##!!!!
운전
매력
시각
MBC
##빼
대놓
##건설
행위
직업
이딴
##공단
##낸
##으려고
바탕
기다리
##삼
교통
##제의
온갖
##마리
올렸
##겨
조건
대처
유공자
##져야
##똥
미안
초기
##회견
이용해
##티
##19
무리
해체
##전자
소송
싸움
미군
##권의
실수
##신문
수능
옹호
##간의
##;;
체결
따라서
고맙
철저히
위협
떠들
##결과
한테
군사
시청
##처리
상반기
지도
패션
##망
##투표
무죄
보통
##11
교활
수석
철수
##선동
##모르
진단
지자체
##원의
천안
창출
##그냥
안보
##마저
확실히
##시즌
강하
최저
##디
##ㅇ
##자동차
##딸
##상황
그만큼
스마트
금액
##50
##발전
인한
노동자
쩝쩝
특정
##레
##는다는
드루
예비
##습니까
##5000
극우
##에겐
죽음
##행사
입주
죄다
밝혀
##폰
물타기
모집
감방
공기
##시스템
##가리
예방
대중
##나간
정체
클럽
##나온다
방사능
중간
지분
새로
압박
시급
여러분
문가
들어오
충격
##보단
폭력
자국민
##~!
완성
즐기
물가
##끝
마케팅
##대가
비싸
##순
단순
문정
##세기
육성
넘어가
##여행
선진국
법안
정은
##피
##정당
주문
자세
조만간
##%),
시점
전면
취급
##꼬
남의
어떻게
맞춰
알리
원내대표
페미
##재
존나
매각
이동
##백
하반기
출발
적당히
아빠
##좌
특수
그래야
특성
결론
##고서
##주년
어제
조용
주둥이
##싸
##위해
혹시
곳곳
지식
##체의
##뇌
세대
관한
청구
아웃
대안
스타일
입학
##12
연금
##단의
충남
압수수색
현금
홍어
전반
고향
이재명
##대한민국
##써
##정상
##버
##앙
##구의
해명
저리
처먹
눈길
통화
학부모
##개국
연봉
투기
예술
##눈
연계
돌리
##증권
##ㅜㅜ
주인공
심사
커피
##회장
바닥
아내
이슈
손혜원
신용
##차례
적자
윤미향
변경
아프
##상품
미개
축하
대학생
##처먹
##필요
마약
친환경
심하
물건
##문재인
##감정
지나가
지켜
관객
격리
꼴통
##아닌가
불만
##대출
공유
발악
##......
분열
벗어나
빠져
##비용
##땜
검증
정작
##지수
대만
차단
##재단
##40
##과학
##이제
##액
골프
설계
장면
35
2006
굳이
빠른
모아
대북
사라지
##단다
##욕
사이비
##랄
##구먼
문정부
망치
해소
투자자
##청
##사실
스트레스
##비리
배경
##리의
##국제
##당과
원장
##가의
유튜브
또라이
##밥
별로
##밖
##행위
욕먹
협박
이상한
반복
아줌마
대우
파업
월드컵
나무
반도체
학습
대박
##기준
출범
떨어졌
##는군
형태
오픈
##지사
실망
종목
올라가
모른다
ㅜㅜ
활약
##게임
추정
빠지
감안
##다시
##갑
봐야
##히
##영화
옛날
제재
꾸준히
##뒤
##려나
장소
자산
벌금
국립
개입
통제
칭찬
웃음
콘텐츠
##t
독도
불구
##미국
##지방
##식품
##산의
대기
간다
추미애
단속
##사태
##시킬
존경
검색
정은이
카메라
연말
들어갔
한계
제주도
##따
왜구
충분
명의
##전쟁
지도자
가까이
마세요
##협력
어른
##길래
상장
##에다
떨어진
인하
그러니까
임대
자영업
아닌가요
##교육청
실천
전날
접수
짓거리
##A
복귀
재미
만약
어이없
자한
뇌물
##한지
긍정
징역
2017
지하
##전화
나누
세우
지겹
518
데뷔
이사
##****
##순위
##분의
##잔
##구속
비상
##연합
됩니다
##ㅣ
무서운
성폭행
박원순
시국
극복
두산
##검찰
시켜
자율
사드
내려
숫자
줄어들
오지
경고
##닫
##는구만
##이사
조기
이하
아동
취임
무역
##상태
촉구
미쳐
지옥
##인들
당했
##마세요
##성장
체제
제조
이자
열린다
지능
##갱
합시다
초반
위선
##교활
기여
가까운
##타령
나선
##심의
부진
따지
고급
!!!
과제
휴가
##혀
의식
포항
완화
2018
난다
저녁
점검
철저
형성
단독
식당
타격
##닥
##본다
##장애
##곤
갈수록
호남
만족
수십
일반인
재난
부품
비하
드러나
악화
##된다고
작성
수행
돌파
당초
치열
투수
##을까요
의해
감싸
##된다는
신설
프레임
5000
북괴
##넣
효율
누굴
다를
따뜻
내일
허위
이낙연
가을
지사
##유
##혜
폭행
##으시
명예
##연구
##대강
아닙니다
등신
시선
모여
다소
##출신
##베가
##연구원
뉴욕
개성
합리
장점
차리
차기
권리
가만
##경찰
준다
명이
학원
##예요
##짓거리
살려
##의식
##할지
대폭
##정말
동영상
당당
자전거
##공산당
제거
물러나
흐름
향상
전세
와서
##운영
방역
강원도
겁나
##성과
기념
150
아마
유니클로
기도
물량
죄인
##G
##아님
토론
##소득
반박
새벽
자동
희생
동참
뒤집
큰일
포스코
##키로
건립
##엇
최소한
최악
표정
지진
##가치
무식한
##께서
##맘
펼치
지하철
대통
때리
한화
만난
산다
터지
선고
상상
영웅
##으라고
##둘
법무
변명
이때
상담
자유당
탄생
이민
태도
##자체
경선
점수
거론
포인트
새롭
##져라
##사진
##',
축소
##수석
대구시
필수
##민
##겄
벌레
창원
##일보
상징
배출
##모양
가동
##핵
용서
##으
화제
기독교
답변
##책임
이혼
##환자
##서의
영입
이래
##서울
##생명
가해자
등도
##색
보냈
애비
쉴드
걸쳐
가리
메르스
##스타
날씨
자극
아이폰
진입
애국
야구
움직임
##많이
착각
취지
400
편하
꺼져라
내렸
멤버
##축제
죽창
주력
##의료
바꿔
공짜
이웃
컬러
화려
아름다운
##아들
##시험
##13
품질
##한가
뭔데
성인
##아냐
타령
국정원
나쁘
법정
드러났
나와서
##'(
근로자
##계약
용기
테러
논문
##법인
##재의
된다는
##사랑
우습
투명
즐길
저렴
##야구
박수
전북
참으로
##.?
##시절
근본
##자원
직후
담배
재벌
##쟁이
증상
##구역
폐쇄
버티
집계
##해졌
예측
##훠
다리
##닝
팔아먹
##새기
##청원
##선의
마감
##주일
##으로써
올라
모임
##재산
양성
##뇬
창피
자존심
##전략
수많
측면
##100
##%(
IT
의장
오바마
소름
올린
크기
우린
공항
##몽
부회장
국방
신상
식품
##봄
지켜보
영원히
##독재
움직이
민생
45
##원전
정경
남녀
훌륭
추석
사정
2005
지내
##드립니다
##스런
##지의
명품
##으세요
전원
상위
욕심
데이터
증시
길이
도덕
##거래
##안전
확장
순위
은퇴
##잖아요
##했으나
##다운
수학
##류
상처
이만희
3000
정기
발굴
하나님
급증
초청
##크
흔들
만한
면상
갖추
승인
국방부
유출
##해봐라
감동
대다수
##민족
수용
##농단
##~!!
김대중
승부
수구
실질
##ㄲ
카페
개편
가게
##km
폭발
몰라
##꼴통
##조치
캐릭터
영역
##돌
유치원
달라
꺼져
하여간
##당한
계열사
##딩
보복
작용
##예술
선두
이틀
의문
경상도
##공간
##건가요
구하
일대
##손
전해졌
후반
실현
##죄인
종자
도착
##이게
##차려라
사이트
##종의
##틀
살아라
응답
권한
걸린
상관
##;
##은가
강의
##24
##지지
한방
똑똑
##동
바라보
구글
완벽
체계
##입니까
동기
의료진
##인사
통신
남한
혼란
##효과
중도
위원
만만
갖춘
##좃
단일
컴퓨터
##천지
노예
임원
##친구
마누라
걸렸
##잘못
유학
##관광
금메달
##고요
##평
##아의
불러
노출
협조
##중앙
특혜
최선
##찬
성격
호주
경주
밝힌
이해찬
32
접근
일부러
##저런
이렇게
뒤지
##마시
##그렇
구역
평등
빠진
비행기
무려
##종합
입시
계산
선전
추세
유도
채권
가즈
당한
문자
##다른
실험
##머
구간
긴급
배달
백화점
부끄러운
아이템
##쉬
허가
이탈리아
##먼
요인
운전자
완료
이재용
##전문
늘어난
증명
배려
##기구
최대한
동일
무릎
진상
##체제
짐승
찾아가
장악
##놈의
##버렸
##주도
집행
인원
운운
##댓
부대
##감독
장학금
휴대폰
도둑
##실장
##터
괜히
##16
##마트
예약
동생
한두
##사항
태양광
##학생
갤럭시
부실
핑계
##십니다
박사
부지
이내
##제발
추경
##브
퇴출
##청산
장비
홈런
여유
교육부
##홀
##연구소
##유공자
고위
저딴
메시지
분리
저자
환율
발행
요금
개정안
비싼
##교회
2020
프리미엄
부과
##털
참고
##경영
편의
그쳤
왜곡
초딩
부패
##보호
사망자
##치료
잠시
##코
데리
속이
비핵화
인정받
주위
전교조
맞춤
##관련
운행
##관의
##다음
취재
##동질
유엔
##시기
지배
##TV
주거
관측
공모
KIA
이중
겨우
##당국
##군의
생태
##이하
정규
꼼수
책임지
향해
##냈
채널
함부로
할까
그린
삭발
피하
사안
##식의
김치
교육감
걸려
##준비
추방
##라인
청소
~~~
아울러
아이디어
##남자
돌려
개막
틀린
##도로
이분
독자
매국
##든가
##들어가
가지가지
##자산
아프리카
##아파트
##식이
##x
재인
##품의
##줘서
33
수수료
구단
자국
동료
법률
안팎
고개
태풍
센터
나대
직전
엄청난
시인
##21
모으
본사
후원
맞추
##동네
항의
손실
##민의
후손
김경수
독재자
시범
CJ
이사장
트위터
##구요
방해
후회
##보도
노선
신기
##짝
운용
만세
정비
자유민주주의
문의
##창
드러내
토지
##매
설정
##총선
이념
##시국
누군가
환영
양반
##중공업
##쥐
##자료
혈세
부채
인민
##봐요
게다가
##얘기
리얼미터
아닌지
착한
##공
##처벌
예고
거듭
36
발목
##튼
추종
만났
##못하
##에너지
일당
선보이
좌우
##자치
##셔서
코스피
먼지
국산
도쿄
망할
대거
##체계
##슥
멋지
포장
##판사
##세트
##화학
가졌
요리
수준의
개방
##청장
##로써
위로
첨단
##주민
표시
##머리
##쇼핑
오랜
졸라
대결
명복
라인
망해
역량
호소
임시
닥치
##????
화장품
##책
징계
살아가
정답
부활
젊은이
아닐
이명
도심
사법부
##카
혐오
부여
보소
고교
열받
##코리아
대가
심리
모조리
##용의
예수
##시가
##짖
##그래
석유
##논리
하여튼
##2000
##라운드
##노총
충성
형사
##자유
##무슨
##자마자
내내
나갈
건축
행보
수주
##14
매입
화재
초대
돌아오
##백화점
SNS
김일성
위조
##위의
사무실
손잡
##체험
2004
##대변인
누리
비밀
연습
소중
##소속
감시
보낸
손석희
수정
##안타
법인
해산
##전형
된다고
##구리
##현
##누
보다
##는겨
고집
##시티
아닐까
손가락
##표의
합격
명분
별도
서류
기계
찬양
출산
오로지
##업
##량
##]
적발
180
##떼
수시
본질
청약
##으론
SBS
선임
경력
청산
##부리
나설
적절
복합
연락
라며
탈출
디지털
유사
그녀
##전이
국적
보안
식사
##이래
한미
##그럼
심지어
성추행
##교사
발사
##22
도내
설마
종료
용인
##종시
한글
##이유
##이리
들어간
윤석렬
##텔레콤
여기저기
언론사
수단
해양
##번호
그지
##풀
대답
조언
어울리
##늠
어르신
##시청
시리즈
##분야
임직원
메이저
##덩어리
특허
##지랄
##작
리그
수백
##썬
##기록
비정규직
##작업
방지
실업
등과
##돼야
##S
##공무원
결제
선출
##건강
가시
##부모
##충이
##여성
태어나
넘치
거주
노후
##28
내수
##미래
아쉽
브라질
김어준
##너무
##링
지령
강원
태국
때려
맛있
국내외
실체
겁니다
부리
철도
저건
휴대
무게
숨기
##탄핵
65
##그만
##외
보고서
투쟁
##아닌
##김
회담
넘기
언어
선박
즉각
수비
유승민
불가피
근로
혹은
##27
소녀
##일세
사죄
##하의
부처
##기회
분명히
오염
대로
매매
##차별
지껄이
##조직
##ㅉㅉㅉ
대변
일본인
##인당
진술
로봇
고작
##물질
##맨
교류
##모
가계
그치
점유
등등
사항
던지
사기꾼
명령
이어졌
##29
52
순수
대법원
블랙
업종
내린
##지경
##찰
화면
##26
##대학교
발휘
부당
##23
변하
여수
진작
상승세
##빠리
##칠
추락
코스
캠프
##내용
##17
##훈련
##일의
##존
##해양
##문의
기름
소유
챙겨
입지
양산
##감사
강간
고대
저축
##지네
##양
직장인
개설
##지나
##족
##을려고
##비율
##꼬라지
면접
거대
추구
적어도
안다
##이러
우주
몰라도
34
드디어
##역사
폐기
##ㅜ
지인
##푼
느껴
야권
GS
수장
수립
염병
이용한
이른바
배제
##행의
동남아
이래도
붙이
##부문
##축구
##량의
대한항공
선보였
공포
##셔
##현장
내지
모이
시계
내려오
계좌
자제
정확히
변신
치르
체포
당해
미디어
씨부리
자발
##어디
##은지
소환
##범
##맛
개학
##주인
##60
유력
농업
분류
##프
##~~~~~
한남
##이번
개봉
써라
##해진
현안
##곡
열렸
자본
의한
##신고
한때
공략
외면
##이의
음성
화학
공원
##꾸
##혁신
위대
페이스북
방치
중앙일보
입맛
믿음
느낄
일으키
주기
##짜
주지
##했었
##혁명
대사
거두
##임금
소화
##이닝
미만
##빈
통보
2002
풍부
꼬리
##학원
##장이
실시간
뛰어난
항공
##예산
##투어
죄송
철회
##여서
주의
120
무너지
작전
재밌
개통
지역구
인프라
언제나
떳떳
멀리
간단
전공
##프로그램
##마스크
##당은
광장
가난
38
##떨
앞둔
떨어져
##걱정
알려진
##방법
남기
개별
##쓴
KB
긴장
실내
##므로
##500
어깨
경계
너무나
##앗
꼰대
##평화
직무
한쪽
세종
뮤지컬
음주운전
99
연대
시청자
슈퍼
##대비
리더
???
민폐
##으러
##대구
##미터
꺼내
##봉사
##파의
##패스
600
##..?
화가
##금
편안
진영
##걸레
출근
새해
##무역
##수당
편의점
상가
성매매
빠졌
##버려라
벌어지
압도
채택
##면적
수령
도발
##외교
##앤
예능
무상
김제동
파견
상관없
활발
과도
매주
철거
##얼굴
##버린
요소
심한
##파크
이언주
성능
범위
##천억
동부
득점
##방식
##대응
캠페인
든다
아니야
##믄
동양
어떠
창조
죽여
매출액
##찌
여권
##즈
주최
쯧쯧
맞서
방탄소년단
개뿔
애기
##합의
저놈
파괴
모았
감히
##쳐라
봅니다
##더냐
##팬
저질
##국회
##런
즉시
소신
사업자
입증
평창
강요
예배
어이
스페인
##~^^
##범죄
기어
강도
##쑈
##느
##다니엘
투어
삭제
엔진
아무런
거품
바쁘
재미있
선호
기원
수고
오만
간부
##반대
##죽이
노리
강행
어째
질병
정유라
합류
충북
정규직
명절
생존
참가자
타자
주관
사유
세뇌
노릇
위하
알려져
##올리
##부가
##나와
존중
예의
##갖
연관
##피해
멀쩡
##금액
유족
만날
나선다
편성
##기능
연령
##현지
##총
보건
맥주
교과서
아기
##따위
취약
##한심
##봉
##g
##보인다
##존의
일관
##3000
녹색
##는데요
문제점
결승
당국
잇따라
뜨거운
쇼핑
애쓴다
재건축
##전하
열정
##행동
##~?
##라는데
클라스
어려울
중구
##생산
##시리즈
부장
이뤄
공직
멋진
동맹
##으려
우기
자라
법대
편리
##협의회
정식
##처분
##큰
처분
전광훈
##개선
후배
일각
지도부
지원금
주한
풀이
배운
환장
##색히
여경
##절
코미디
침몰
행태
재개
한전
인지
이른다
재수없
근처
##라이
복잡
##직원
돌입
통상
이득
##인권
##인력
진료
##인생
##민국
##껀
입원
제정
망신
한참
조장
주세요
돌아다니
##웃
티비
좌표
전개
주차
통하
##심사
지점
꿈꾸
다수
중동
##선언
자진
##불당
연극
살펴보
연휴
훼손
##그리고
소문
할아버지
기대감
##찾
오직
상인
##.......
허리
##조원
인류
새기
콘서트
분이
##됬
조절
##라면서
37
민정
선배
##희
중소
작작
기가
조례
▶
심의
쉬운
침체
##학과
추억
성남
##의장
정신병
부럽
관심없
##짱
##폼
표창장
##원장
엘지
##그런
FTA
들여
절감
캐나다
감당
##켜
##모의
아저씨
중대
CEO
충돌
할배
2003
##안보
놀랍
##드리
##아직
참나
실행
날리
가르치
##거지
##승리
##정
곧바로
민원
보완
영장
선거법
##태의
질환
연구원
##객의
추하
둘째
##당했
매달
##위한
떠오르
##000
##중대
성분
마친
주주
며칠
##요금
필리핀
이마트
통증
##사기
당사자
선보인다
교도소
전수
##팩
데모
##인상
반미
##징
균형
이겨
##의의
지나치
##31
##카페
세트
시켜야
메뉴
화장실
목포
참사
##마음
체력
이용자
원정
##망하
절대로
위선자
나갔
적합
##인척
형식
##그래도
##사이트
정원
시비
조폭
부작용
유권자
배터리
줘야
##시위
##짐
고유
농협
55
지상
미술
##인과
교과
견제
완공
서구
전기차
옮기
취하
가관
##판매
유행
문학
류현진
낭비
서명
##초의
악질
그날
노사
신도
##플러스
폭동
초과
받아들이
재무
찌질
##가요
품목
당일
41
##국장
심장
##!!!!!
##미아
##와중
정수기
설비
채우
월세
단위
선진
일방
##대한
단기
하지만
인가
착수
양국
##당신
##읽
런던
##우
##규제
상당수
나아가
##연대
##원대
선사
빨간
다물
1500
상생
머저리
세웠
##협정
진화
평범
주둥아리
앨범
평양
##허
둘러싼
##입국
모자
죽인
##전의
##행정
사면
보급
기각
올바른
제조업
54
만남
##기기
발광
놀이
대구경북
##르
중학교
##지키
박지원
전라
영향력
##쓸
종류
면적
감추
당분간
##수지
알아보
모지리
살아남
동반
납품
시체
한데
42
밝혀라
공평
가볍
##코로나
##공연
유가족
일찍
##여론
##노인
대목
이순신
##시작
##리가
점심
담긴
##스포츠
꼽힌다
##질환
관람
여의도
이성
깡패
##거의
##8000
##순간
연주
국익
공기업
들어서
승진
주차장
깜짝
한강
판매량
설문
##~!!!
경향
산하
벌였
전파
소장
석방
조합
##누가
매번
보관
실정
부산시
##텍
결코
PC
39
개헌
##부장
##모델
협약
##설
나간
##하우스
변수
안심
심상정
실무
##간첩
압력
이외
에이
독특
조합원
접촉
지소
그리스
##80
##세끼
##라구
##효
이정부
##했으니
##수익
##끌
유입
##할려고
고기
##울
##낼
유발
모인
##으려는
##력
고등학교
베이징
##술
넥센
파리
기타
의회
폭탄
강사
##물의
들어갈
앞장서
##평등
방어
망했
##돌아가
대국민
코치
오죽
모를
성향
자가
##버스
흘리
신발
##발전소
마땅
##ㅎㅎㅎ
왕따
낮추
다가오
흐르
##보소
##ㅉ
초등학생
면서
증권사
기술력
급여
자본주의
공익
봉쇄
뻔하
외모
네트워크
##협
임영웅
언젠가
##미친
등급
##이렇
색깔
지수
##격리
추잡
착용
코리아
해봐라
걸레
해고
##양반
풍경
고문
##4000
상호
마쳤
##70
앞뒤
광주시
##낫
부들부들
장식
마이너스
라면
들리
어린이집
정하
구상
이행
##바뀌
패거리
늘어났
AI
점차
가량
결합
위주
카카오
그곳
출동
##닭
##싱
몰아내
비서
집구석
48
붕괴
공인
##숭
말라
##낳
양보
과장
왼쪽
역겨운
##냄새
##사가
당원
북미
교통사고
토대
##6000
자신감
폐렴
##와라
인턴
복원
각오
모자라
메인
패배
추악
외환
조롱
##대사
한겨레
계시
듯한
##버려야
조명
용역
##당도
인건비
##학기
찍소리
키워
##사퇴
후쿠시마
플레이
탑재
##현의
신중
##동물
농촌
초점
와인
맞이
입사
##자격
배웠
마인드
##X
##개념
저걸
##컵
##대전
신입
가입자
##통의
##이름
깔끔
퇴직
설득
바이오
침묵
외교부
밥그릇
탈락
영원
##200
족속
타이틀
##자기
##편의
##계층
##1000
끔찍
옮겨
##블
##질의
##준다고
겨냥
와중
##35
후보자
누르
요새
백신
격차
추모
색히
천국
강연
##변화
꽤
개의
##미사일
##연맹
##구당
시중
그간
구경
신속
박멸
##엄마
인연
각자
##차량
어딜
##바라
호흡
침해
트렌드
간담회
##용품
75
연다
##인아
##잉
##체
신종
깊이
피의자
##달창
##경찰서
생각나
##주가
##모두
귀국
ㅇㅇ
될까
확률
누적
재단
등판
어서
대권
vs
죽일
운명
시켰
##해의
면제
대해선
##녀의
현역
##근
사지
##교체
##*
택배
보수가
고정
동해
##공인
신한
##으신
확충
천지
##긋
800
##톤
##철도
##박물관
감각
.....
지네
나눔
맑
고마
쪽팔리
출석
그쪽
##www
입법
##;;;
속보
거세
클래식
단순히
치킨
아픈
신분
##회관
베네수엘라
##안정
국무총리
너거
향한
##kr
##권력
쌍용
재료
43
당부
##거부
라도
권고
이어질
임대료
흥미
보조금
소형
몰리
##조건
발급
그렇게
선도
##분열
2019
반납
빌려
삼가
삭감
시나리오
민낯
가깝
전염병
손님
44
##업무
휴식
##부부
길거리
##누구
거치
지출
현행
문구
##이거
##몰
700
##복합
##써라
임신
몰래
비즈니스
##셔야
약국
모였
맡기
중공
지연
다루
화이트
주자
##장치
무산
넘겨
##금의
일산
##치의
측근
##작가
아이돌
##따라
객관
##연패
신임
##골프
인천시
##야당
고민정
부각
##중의
##걸까
준공
스토리
내보내
유죄
신선
코스닥
##슈
최다
아픔
##먼저
##인증
내놨
한층
수리
상당히
민감
물리
부천
거뒀
약간
##바이러스
##노동
나름
##댕이
##다면서
전주
왜놈
이스라엘
소대
김학의
마트
내려가
열기
신체
그려
##협약
##신천지
##보복
전해
건설사
모색
웃긴다
##해진다
환경부
보험료
##나이
##담
##놀
범인
지명
감축
전직
##뽕
극단
탄력
##미군
##줌
벤처
스님
##7000
도서관
농가
종전
높였
연애
나의
작정
##활용
##징역
판정
패스
전액
원자력
특유
##파악
얼른
늘려
##호텔
먹이
##당시
시내
미니
##저축
선관위
남이
야이
정착
##냥
##사장
당내
비전
##폭력
기업인
##뜻
원의
##이용
구청장
장제원
추적
자치
해제
강세
흑자
##최고
주행
저지른
본부
##주자
점포
건가
폐간
##ㅊ
재판부
개독
모시
써야
##C
가방
##건의
조지
따위
##신청
##라시
우덜
##에게서
문화재
##배상
##광장
##경북
##보여
이뤄졌
사이버
철학
약자
NC
##쉐
##총회
망한다
회계
##공부
편지
##재정
여건
강아지
구미
##올
##영장
##학습
##나왔
줘라
종이
1990
취득
늘어날
##아주
도지사
건지
##해질
앞잡이
경매
억지
##광고
습관
진동
##역
대충
복수
##인구
애국자
##교
화웨이
##탈
획득
발의
##앙의
##체육관
##검
앓
소주
##연의
바르
줄여
영혼
##기획
드러냈
##양의
든든
입찰
##마냥
59
날뛰
내달
##9000
진로
올릴
84
떠드
##폐
##랴
연합
세워
흔들리
##는다면
버렸
누군지
##이후
후진국
관행
연설
박영선
줄줄이
##만나
간의
##합니까
조상
건조
바퀴벌레
49
##행
공시
웃긴
장군
주범
공안
##룰
##걸리
꺼지
공지영
##결정
저지르
##끄
46
다섯
한숨
동구
뒤늦
시사
##넹
기기
변호
해외여행
##취급
##확인
정황
싱가포르
##셈
##추진
##뜨
내기
##장비
김무성
##연승
##여당
오해
뚜렷
무장
##놀이
##쥬
수험
##자나
보일
고의
##삼성
잔인
##봅니다
태어난
어리석
워낙
구멍
##수술
특화
괴물
교주
##캠프
증권
구현
머물
##️
산불
상임
##션
##인듯
통해서
진주
##홈런
##차이
전시회
차려라
##㎏
합병
250
배상
춘천
##덕
붉
과목
47
##썩
금방
##방안
파워
##련
한진
기아차
터진
마당
##화의
모범
증인
신나
##호의
##경
보존
고만
매수
플랫
##소재
날려
식민지
현명
아끼
##협상
##든다
장자연
##투
보여준다
승객
##투쟁
유전자
##셋
##클럽
##나갈
어떨까
월드
##유지
드럽
세부
##암
시끄럽
고려대
사악
상하
##메
##종교
따라가
농민
오른쪽
민경욱
진학
공정위
구나
저능아
위장
가세
##도와
##그리
아시안
할지
그놈
대리
광역
물질
그런가
##때리
역적
위상
##칸
치우
내주
##묻
해요
신세계
##일자
담보
##B
85
처단
##명회
역전
매도
마이크
테스트
4000
장착
지경
##근데
##개입
꼽히
##껄
##망신
흡수
슬프
떨어질
시골
된장
적응
표준
신인
야외
그럼에도
중립
금호
출국
그네
지난주
##려다
##차원
금감원
##넌
죽였
##뜯
탈탈
##사단
국격
분당
현직
##산다
##보장
신라
##선생
##혼자
똥개
##참여
대량
##입장
##먼지
##생의
측정
##진의
전역
##극
##연
유동
한다면
귀족
##힘
##이야기
심화
처지
퇴진
IMF
정서
관람객
기재
대하
그대
##교의
공직자
일원
대대
##법원
난민
확신
걔
2001
기득
돌대가리
##십시요
##포럼
자들
애미
##쩝쩝
유포
리더십
어쩜
엉망
정국
정시
상금
노하우
급등
착공
사내
서해
##월드컵
오피스텔
##공화국
경기장
##타워
가스
총괄
약점
유투
유가
소외
펼쳤
##만드
높여
나란히
##으려면
김해
국무
멈추
명확
##등록
간판
물류
##부산
대접
차관
유형
조민
놔두
##무시
##역시
보인
중순
사라졌
##엠
흥행
##ㅁ
##반의
식물
거르
대세
솔직
##부채
한창
지적도
느꼈
합법
##에서부터
유해
자화자찬
내면
##사업자
시세
일시
절실
사무총장
중반
합동
주부
수습
저소득층
골프장
이단
하루빨리
자위
김진태
흔적
더듬
화나
##뻔
증언
##뭔
##세의
마이
인종
성범죄
원유
경유
엉뚱
시정
세무
어려워
병역
엄벌
##교통
꽉
호응
망언
##다만
익숙
막판
##불가
극대
잠실
끝내
##체육
##어의
의존
싸이코
패턴
##혐의
바람직
##힘들
청주
위축
##모습
철강
##배우
##것다
지긋지긋
고인
탈북자
네티즌
가끔
##꺼리
천만
멋있
육아
차질
범행
가려
부사장
창의
##지원금
##못한
충전
온통
##학년도
전락
그분
본회의
##나올
##자본
##워
##전문가
도약
장치
강경
이슬람
부디
##변호사
정직
서초동
##경쟁
여전
##청의
51
구제
몰려
인데
##확실
황당
유독
의뢰
##혐
슬슬
화성
##발언
횡령
어떡
체육
##52
주체
가져가
##뱅크
토론회
##여야
들어왔
저장
업적
충청
지휘
##의사
강남구
##사무소
순서
원조
석탄
사업비
그릇
무상급식
똘마니
회수
차세대
##껏
발달
통장
시킨
##전한
온도
학력
만기
소년
형제
##공헌
##부품
세운
메이크업
지은
이대로
동계
달라지
수급
힘입
##통수
##300
납부
이승만
앞세워
##수도
##공급
어딨
정해
줄어든
지표
교환
후속
기부금
조센징
건수
##지대
아녀
오가
수호
기후
국고
낙동강
본선
##오늘
상무
개무
증세
매체
탈당
##찐
##적폐
아쉬움
##강의
공산주의자
구리
극치
생계
한정
##아베
##석의
무관
##주제
##사이
담겨
마녀
광신도
계절
자르
포털
눈앞
디지
놀라
야간
더블
한류
연세대
##퀴
##협의
혁명
관여
##라니까
##밑
##역의
했었
##팅
모른
연수
과일
놀아나
##45
시신
무지
##도서관
##오픈
##공감
항목
그딴
##원이
융합
도저히
송도
##홈
##됐으며
##기한
미칠
어쩌다
1980
전담
발상
코스프레
출입
##33
개장
백수
문서
내세우
##이건
사무
사로잡
##십시오
위안
보낼
공작
안내
악의
좌익
격려
쓸데없
##영업자
피곤
고양이
그니까
패키지
수집
조화
그만두
널리
신호
예외
##인터넷
해상
종식
고속도로
##소의
몇몇
##델
##진보
자회사
동급
관세
북쪽
국어
##>(
분쟁
##터지
가속
무서워서
듯하
##버려
자문
바쁜
파티
##철수
폭락
##후의
교장
팔리
고스란히
잦
문제지
순천
의결
수시로
##청문회
##단위
떠났
##일당
사세요
단축
##자면
##집행
소음
##는대
미소
상주
던져
미국인
생길
게이
뒤통수
배신
골라
##소송
##할래
사표
여파
이뤄진
하야
섭취
되찾
쳐넣
##샷
##부분
농산물
자칫
이끄
##사용
소요
##정비
수소
##통령
작동
##옷
강릉
챔피언
살인마
소수
##~~!!
중점
인도네시아
체크
어릴
배후
감수
무덤
심정
##마의
부서
다녔
등록금
대상자
도박
귀신
##랄까
명칭
모금
공화
국비
##사원
쪽발이
아마추어
살해
나타냈
##그래서
쓰이
##따구
얹
거절
##떠
탄압
강점
##갈등
외신
기적
##령
전후
이제야
##는디
##통화
티켓
##칼
해법
##운용
독서
메달
종로
##증
##랩
들이
##아프
지목
박원
끼리끼리
##마라
잣대
상관없이
사라져야
상업
출장
반려
보육
사연
소프트웨어
95
독점
##넨
소셜
##애비
질질
돌아왔
##02
##재정부
흔히
##절차
다운
서서히
파탄
503
점령
매치
##채널
씌우
정치가
사립
의류
수분
도둑놈
제약
배당
##남용
조카
로비
폭로
##변의
##가스
일어난
건데
##타점
##나쁜
니놈
온다
##M
솔로
계열
손바닥
감염자
##화재
##빨리
뭣
불황
만화
멕시코
삥
##영상
디스플레이
##K
부추기
타율
가증
저희
부위
지위
상실
창원시
퍼지
앞선
보여준
##싸움
첫날
기다려
북조선
무서워
##실점
총재
가중
유감
##초등
쟁점
남겼
PD
바꿨
##다물
전제
늙은이
남쪽
최우선
기득권
##몇
핸드폰
바꿀
##kg
㈜
갑니다
저항
##무능
증정
개그
##청구
핑크
운항
당선인
##예
##라네
##과장
말장난
가공
내다봤
##32
각국
고치
잘라
미투
인공지능
##몸
다이어트
새삼
##살인
##기지
##지주
##시켜서
허락
가질
바뀐
당할
불렀
체감
내정
주류
암튼
닿
##인데도
테마
만들어진
달인
원가
아나운서
##될까
결심
틀리
잡지
때려잡
##바로
정치판
##촌
##솔
사모
##가들의
파면
##으라
마리
틀니
탁월
개한
##놔
내려놓
공영
두렵
접속
가상
약하
##진흥
장르
##인식
상대방
##라곤
양상
해임
사시
안타
벌어졌
싸그리
주작
박물관
따져
국채
추산
여태
수법
##차려
##com
전무
오랫동안
오세훈
리스크
막대
모여서
쇼핑몰
##부정
뭘까
재발
##종이
지켜야
달려
과시
측이
고수
불안감
명성
LED
##장사
사찰
골목
인용
명백
지닌
두둔
##광주
나타내
행정부
##득점
구린
윤리
뛰어넘
건의
##떨어지
가맹점
##봐서
뛰어나
소상
뛰어들
##님의
해군
잘난
관점
주머니
손상
조달
실업자
실종
막걸리
쓴다
감상
전당
##청와대
최신
##고용
안타까운
예금
화력
근대
##급여
폐업
##공학
신념
벌어진
##현실
##주사
영구
살짝
##쉽
떠난
갖췄
놓치
사생활
##데이터
국세청
커졌
병행
정면
무한
##렴
오랜만
근육
민간인
56
##관심
꽂
교육청
벤츠
##라더니
대외
남부
영양
흑인
보네
##악
개검
여사
하도
방구석
LH
##색기
##이야말로
##개돼지
이론
될지
연일
걸릴
청탁
재원
교인
숟가락
한거
경비
기조
어쩌면
##한마디
##일자리
##34
##주행
실명
지났
##인치
##여기
##종자
##는군요
김정숙
평택
##랜드
선거구
##생겼
바위
실태
##정지
##심판
소원
꾸준
밝혀졌
코너
##줘야지
마운드
통일부
##붙
##학회
과감
##지법
##법안
##낮
도시락
##........
쓰래
##려니
직권
고백
편법
##답니다
##혜택
적당
핵무기
바꿔라
항공기
##이것
손흥민
성명
##투명
엄격
팀장
##운
베스트
구도
바지
작자
비결
##법의
공중
공통점
스위스
##모든
안중
터키
농사
구호
약한
태블릿
감면
입이
말자
분산
컨설팅
##보상
개관
아마도
노란
지낸
헤어
피눈물
##거든요
싸가지
태양
시상식
##살리
하위
넘어섰
정밀
괴롭히
##나온
##항
53
제압
창립
##페미
언니
끊임없이
##모임
##중심
##몰이
김포
희생자
영광
리얼
투기꾼
실장
##난리
거친
보이콧
##오염
화장
##리라
중독
영남
##박람회
게이트
##포기
놀리
##룩
##우의
걸로
올라오
##과제
줄일
이적
가벼운
원천
##농구
CCTV
소방
수색
방송사
변동
##마켓
잠재
##민주주의
토요일
##치를
몰아가
##임대
학대
##세월
##사냥
자칭
바치
경호
##전남
JTBC
##분양
열차
##척하
귀걸이
##팀장
##유통
##어질
용산
##아트
발효
##지가
표명
##로서의
양쪽
##토착
매진
단장
가전
환상
##일가
##엿
퇴임
재배
년놈
보조
##시킨다
##작전
##스러워
동아
##보네
일선
황제
먹여
방한
구걸
김정일
##㎝
떠나라
압수
수천
##게이트
붙여
##랑께
##멸
매월
간호사
세균
위법
음주
##보건
즐겁
##무대
당선자
중고
##공정
##타운
천박
음식점
이례
불륜
고양
막장
케이블
안방
위해선
##대행
아부
몰라서
기세
개그맨
손학규
수면
##줘도
선포
##빡
편가르
무선
에어컨
##룸
##드라마
##장기
발주
엄청나
돌아온
펼쳐진다
교실
##물가
BMW
하다
찾아보
##드만
##격의
##각
남겨
크루즈
##매국노
디자이너
##쟁의
시술
정지
##언
심해
##을라고
들어온
비유
성폭력
하이브리드
출간
##제한
입구
공권력
전투
##부족
##최
박탈
공주
워싱턴
애쓰
##36
비겁
어짜피
##회복
130
##고객
##집안
적정
감기
용어
코메디
국장
하수인
##여부
선보인
치솟
학과
##제재
고전
##전부
행진
잠깐
벌인
입점
해킹
##특별
##섹
일가
원료
##새끼야
예산안
불가
##디자인
63
예선
58
동결
##cm
명박
##슴
일환
진지
##사과
##FC
한국어
간편
액션
커뮤니티
##경찰청
건들
##비의
짚
그야말로
##공제
##섬
북구
힘드
공동체
주적
##55
엄중
시발
잡히
할려고
1998
마다
건드리
뻔한
미세
##바꾸
고쳐
편입
이쁘
##극장
공세
2030
##남의
##함께
##그게
의학
##마당
계란
한도
##실적
##연합회
수년
##집권
사업장
##공동체
몽둥이
##부처
##소나
실화
##갓
불행
소릴
해골
모욕
64
기금
마냥
돌아간다
조항
##주식
아름답
탄탄
전격
기생
일어났
천재
징글징글
업그레이드
맞음
##된다면
속지
페스티벌
##짱깨
##목적
특권
연구소
급식
##단체장
스펙
##항공
1997
모은
정무
##랏
떨어진다
도중
##취소
상정
한꺼번에
끊이
##다던데
위탁
##내리
흙
걸려서
헌금
바꿔야
##유총
LTE
증거인
상용
아이디
의정부
재고
운동권
우유
66
##플레이
라디오
##언제
배정
연상
오마이
유아
초래
연인
##이라도
현황
지향
##당원
##응
인격
했으니
충실
##쏘
##위험
서부
명시
##교류
##매수
끈다
##느니
내릴
막상
##수업
연방
과잉
##주간
이완용
국면
성사
시공
먹거리
하이
첫째
트집
##완전
가사
들어간다
6000
승용차
##속도
72
깍
성별
성희롱
공산화
자질
동력
대중교통
마구
헬기
다닐
##인원
임종석
##상자
##대단
품격
##포
##낭비
##소장
오빠
##걷
인공
풍년
##애라
김성태
아나
한가
##꼭
##자신
시달리
##브랜드
##공천
우롱
##공기
##P
##오르
용도
등교
##개인
충족
마산
##현대
에이스
눈깔
##앱
##주기
건전
공방
##얼
소위
터져
##상공
스크린
##의혹
다름없
논쟁
퇴근
정말로
줄서
##불의
당황
이나
##생기
우와
FA
경찰의
망쳐
##창조
홀로
돌아보
대립
MB
신화
컨트롤
##에다가
고령
섬유
스타일링
텐데
기온
##사례
연루
##스타일
책정
노망
거꾸로
편파
##사상
##벗
후예
##드라
##다구
육박
##R
악수
버린
저번
장모
기쁨
망한
##전환
자민
1999
패널
개척
고도
이색
57
##공의
오류
붙잡
이른
##십니까
스웨덴
접목
후원금
김정
구제역
급하
자격증
저지
촉새
여긴
지민
공범
문건
원화
상영
##박이
##영화제
이어진
##미디어
불교
##여러분
중견
##~~^^
지상파
몰락
##공동
별다른
그립
밴드
##거품
##둬라
##38
##탄
##^
##이전
##설계
지불
물품
##동맹
세련
제동
##원인
##부도
유전
무력
##능
불펜
연동
##종북
형량
##상승
잔치
뒷받침
은폐
뜨겁
##으셨
##귀
안희정
비타민
열풍
경찰관
##규명
해결책
모양새
##기나
별거
상환
##상관
막히
전염
생산량
퍼포먼스
여지
##발표
##뭘
##각의
##나와서
##대우
금속
##해결
##토론
도민
##돌리
블랙리스트
##겸
일주일
단원
타당
지리
##한텐
##더불
##교실
편들
##연기
넘어서
금강산
패스트
극장
##케어
##방해
##혈세
제작진
사후
파격
등지
##심리
!!!!
##매국
의대
네덜란드
수상자
##움
즐겨
통산
##_
##당할
결의
시너지
##총리
##어벙
##은의
##웃기
##산업단지
보증
깨닫
##케이
지킬
추신수
재선
콘셉트
멍청이
##인도
쏟아지
파이팅
##목사
##고교
##37
##설비
##수입
##무기
모름
백성
##90
kbs
##대학원
백만
수영
##산업의
식량
국군
대장
브리핑
비록
숙박
동아일보
김연아
김종인
열릴
김문수
주석
코트
##챙기
친문
끝판
생겨
급락
##도민
히트
드론
##까진
학살
불참
남긴
내신
##효율
인테리어
푹
##다더니
이뤘
배송
##먹이
##설치
##디언
나불대
##방지
중재
##윈
##서민
구별
드러난
면세점
명문
아닙니까
해운대
82
면담
빌딩
고장
편집
##!!!!!!
##우파
##지검
주둥
##좆
EU
리모
##분석
치료제
##단과
##시급
던졌
박차
거점
도데체
##리스트
##토록
관련자
대입
함유
철면피
다름
정계
지저분
마니
번역
주소
##?????
제로
카톡
못지않
책임자
저주
동작
기상청
KTX
달렸
금품
##유의
파산
지켰
위성
원에
인지도
출제
똥줄
수작
신축
만하
수위
면허
드리
군수
##현상
##음악
동성애
채워
##기금
##얼마나
##말아먹
##김정은
##겁니까
규명
단행
중소형
억지로
##하로
##택시
수렴
##미술관
건너
파트너
##냐는
터졌
쪼개
명목
지혜
세끼
##노무
##형의
##터미널
발탁
위원회
##트리
감사원
##고시
파기
##청사
말투
##와대
편히
지냈
방위비
느낀다
생생
##강사
##요즘
##동력
총기
##아시아
백악관
어마어마
유기
##커
##소서
핵실험
##방의
농구
숨진
커녕
촉진
수당
크리스마스
##용지
##거래소
##될지
폐기물
탈퇴
합작
학업
##갑니다
##놨
색기
##유정
##대화
따까리
##백만
비행
##음식
##통일
누리꾼
치료비
##교육감
하나하나
##상담
전범
납득
방통
##장과
개미
##국수호
공매도
박쥐
재학
야동
##끈
고등학생
바뀔
##으라는
소감
보태
파주
##콜
사라질
언론인
방학
##계속
원내
##토
##인천
갤러리
관광지
윤지오
##간질
주전
시가
##행복
모독
채소
##잃
##룬
역쉬
박지성
62
##판결
##가정
##부담
관상
총살
##보임
불통
한우
##럼
지지층
##바이오
##기반
##주변
쏠리
도망가
누릴
##당해
1970
##병우
##폭탄
똥물
약물
지침
프리
콩밥
시속
침략
##부동산
##코스
##청소년
급격히
##39
##다리
sns
요건
회동
장난치
집행유예
##쓴다
부산대
##처장
##쳤
##대도
주재
반전
조율
상권
논술
##키우
풍성
커플
재생
##48
악재
추측
##적의
거둔
포스트
흥분
##@
##높
드립
협업
간섭
롯데마트
##져서
항공사
이뤄지지
##설의
##공약
치밀
양파
비극
일으킨
##셔요
##및
상품권
거울
일어날
창단
기증
이뤄질
도구
형편
속속
##계좌
##지표
##면허
임무
##적자
자세히
거시기
영감
향하
일요일
동조
도배
사리
제명
형평
##밤
눈빛
##수원
##츠
색상
더욱이
마주
솔루션
수차례
유로
DNA
술집
관료
집착
##국회의원
남조선
##영의
양념
몸매
부끄러움
정치검찰
견해
##락
식구
GM
블루
##트랙
우즈
바꾼
포럼
##구장
레드
오지마
보전
얇
##둔
관건
인접
배울
지롤
##진단
웃겨
##비서관
원활
학자
오른다
처형
기운
미루
이탈
요금제
존재감
##입학
##통상
##체크
해방
복구
팍팍
성장세
##들어오
##나무
신났
##화이팅
진리
실컷
유세
포퓰리즘
내걸
번호
성실
관중
몸통
##업자
##블록
연비
기울이
##할머니
##셜
빼앗
검거
명예훼손
노벨
혈액
보편
정준영
추한
##하위
선수단
냄비
짙
##수출
비디오
소규모
두루
##어떻
외출
##벌레
육군
##파탄
##갱이
과태료
##을걸
##료
열악
##타임
조짐
##사와
##비들
재활
실전
110
불공정
##양아치
내란
선행
의상
썩어빠진
고르
할꺼
생일
##방향
구해
당기
##허가
신장
##재인
##모집
포착
왠지
##황
법조
추첨
연내
##차릴
##현재
살길
##데이
##42
댁
높일
과세
특기
##수록
사흘
분기
발길
돼야
달린
일제히
끌려
##만든
죽여야
중계
유니폼
총수
광우병
중학생
아무래도
큰소리
태극
환수
##듬
##보고
원주
##향의
창작
##제대로
아휴
불량
계층
##줄께
##계열
##간담회
까불
1200
재킷
##불쌍
순식간
관찰
소방관
준다고
아산
아까운
소폭
미성년자
끌어내리
이겼
봅시다
##쿡
변태
##해운
나와야
##소설
##심이
##육
곁
제고
##상대
공조
밀리
강용석
##소비
정성
대륙
##이젠
하락세
두려워
생활비
##일반
취직
타이어
##경남
생애
##지식
68
청춘
##가짜
음반
결단
누나
##등등
둔화
북측
달라진
##44
쏙
상향
악용
##탑
##빠지
##소프트
염두
냉장고
동상
배포
8000
도요타
신한은행
##늘
##업종
게시판
##수요
##그것
##~~~~~~
##젠
##걸린
##권리
앞날
##인정
##시도
느낀
생선
##제목
결혼식
도라
67
굉장히
##49
##여름
##잼
살인자
천연
독립운동
키웠
전술
살아나
장담
척결
예쁘
##해져
##인민
조리
적립
##언스
##사리
들통
##특위
깨달
##세여
잇달
##렉
블로그
주고받
내밀
##언더
대학교
탔
되게
음료
##일지
##경쟁력
박사모
조각
나와도
7000
##41
찌르
고사
##모씨
##대신
간신
경찰청
##㎜
##으니깐
볼거리
##가수
동아리
##준용
##43
재현
140
입대
관대
##점검
신부
우세
미분양
특별법
실감
비웃
용지
##응원
##센
감지
발전소
쿠팡
고래
야비
##노트
한동안
줄어드
빼놓
몽골
별명
펼쳐
싱글
##경기장
낙선
저래
수록
##투기
##청년
##54
관심사
빼먹
역풍
안락사
범법자
##LG
##아동
##지지자
표본
아오
밝혀야
119
손자
지식인
아트
##슨
##통제
편향
##회가
세수
감찰
성금
사단
맥락
##푸
##기계
출판
보강
노트
##미술
천막
##엔터
실검
찾아내
위생
부총리
재직
양측
프랜차이즈
발매
##찬다
파장
##희망
재계
적화통일
사회악
출생
사라진
망국
일일이
스럽
공통
힐링
농성
피할
풉
##IT
원이
##구청장
제자
스피드
국감
판매가
용돈
시궁창
##재생
케이스
##불매
공격수
고졸
구청
##터진
##자꾸
자사
##리조트
재능
협회
명심
##캐
74
##쳐서
단점
##추
##농협
다저스
곳도
##창출
즐거움
낡
##아빠
떨거지
한국은행
친절
낙태
하느님
타임
로또
강좌
내려와라
오페라
##47
도서
발간
##저자
한몫
양극
이라크
정년
##더니만
구원
입건
가해
삼성물산
##양심
##인물
급감
해경
##깔
##맥주
똘똘
살아온
##경영자
##감독원
##발의
못난
##담보
플레이오프
신차
수두룩
챙피
바둑
레알
생긴다
유용
평일
출퇴근
스타트업
##아웃
방송국
##술의
우동
세제
낙하산
##바람
저년
##순환
신혼
##방학
##밀
하향
박스
##팔아먹
##촛불
순환
##이해
중시
##없애
화합
##견
서버
무인
써서
달랐
배급
77
##돼서
구성원
갑시다
61
기만
##쿼터
##정치인
##타자
##영업
경찰서
수강
헌재
##작품
##고나
##p
뮤직
##일수록
핫
수원시
연예
새끼야
마라톤
일치
##대선
대체로
비호
등산
동행
경상
착하
마귀
전인
##탄압
매크로
##완화
##야말로
##유치원
농담
담당자
제치
청장
나발
##조합
놀이터
##고발
입당
퍼트리
##에휴
##위해서
##옆
##뻥
흉기
시켜라
##캠퍼스
떠올랐
세습
##타수
대법관
파문
##줍시다
목숨걸
##부와
취미
##종일
##명단
주역
종종
합쳐
##유치
##빛
연초
채무
##나갔
가족의
혈안
##수가
폭염
##군데
수질
##53
##전체
고시
가하
억제
문장
부도
돋보이
질서
리스트
##운전
저출산
北
언행
##월드
차명진
##노릇
##의견
통신사
실상
국경
##물량
##휘
치유
미흡
기구
##했으면
우위
즐거운
##벼
빛나
선보일
모가지
커질
영토
##거짓말
이중성
약세
##전원
시집
선조
시리아
빨개
##렷
밀집
여름철
사라져라
##으므로
##랍시고
드물
##할걸
법의
연료
88
##''
##군수
간접
접어들
##프레임
유료
##46
망상
##예방
할매
##유기
잔뜩
알렸
날짜
염려
##랍니다
일찌감치
교황
##요원
화물
유연
승점
##네트워크
이어진다
엉덩이
한은
하필
기상
##지지율
취향
##쫌
##데로
다채
제휴
안동
순진
푸른
##다르
##이여
종편
공백
##xx
##보증
원리
전설
추격
##쎄
밀양
달라졌
하시
##ㄲ들
주연
보석
신형
단단히
##드립
규칙
##은데요
##폐지
기차
##망치
아우
곤란
##고등학교
##개정
기아
넘쳐
참석자
배워
화두
소지
배신자
고조
당의
##진영
##임명
전월
##박스
71
모순
납치
##말씀
##봅시다
파렴치한
선장
##면의
##롯데
##침체
쇄신
##나물
타이밍
선별
##자라
##투수
실세
더러
안민석
전적
건축물
##인데요
원망
연평도
##쟈
##56
부른다
고양시
넘겼
##51
연이
##논
속국
나팔수
##식당
##거기
##과세
뻔히
상의
세미나
사이다
##에스
##쌍
##디스플레이
디젤
##구성
개시
방영
##천의
내년도
지금껏
##빌
日
나타난
신문사
##시리
우울증
##눈치
성숙
만성
##로다
불신
##재난
세비
변호인
##❤
오줌
압승
드러운
게재
맞대결
어처구니
쥐새끼
안양
SUV
어려웠
애정
안건
오너
탄소
해안
##담당
눌러
한결
##간당
티셔츠
##고선
##얻
들어와
툭
마비
진압
규탄
군산
##자연
여럿
화보
싸이
증가세
레이스
##썼
자리매김
625
열려
수명
황금
쾌적
재수
이대호
##라라
예쁜
맞춘
피로
다짐
눈감
개똥
철새
특이
금연
무사
후퇴
발끈
성역
WHO
##부르
##가진
백인
공수
가야지
말리
천천히
kt
낯짝
KCC
놀랐
녹음
##노동자
의외
##영역
버려야
코드
노트북
고액
간사
jtbc
##건물
잠정
MC
사료
##ㅐ
국외
공단
##돋
권유
선제
자외선
##번의
걸림돌
서양
된다면
소니
##글로벌
순이익
겸손
##이미
우대
교원
SM
줘도
##전당
보건복지부
##명령
써먹
끼치
가뭄
등재
허허
##빠진
경위
##정원
2500
##댐
다행히
##테러
오늘날
##공산
##57
통영
##졸
홈플러스
삼성그룹
헌신
##감염
##점수
처방
의자
테이블
강력히
주방
자업자득
비자
임상
표기
뭘로
매물
##멀
청정
주유소
''
중복
북부
투자가
숙소
총회
##매치
물어뜯
변했
슬픔
##구매
오바
유촉
비서관
나옴
##재판
아쉬운
통계청
##문학
76
덩어리
지면
잡것
인형
인민재판
##유가
##절대
지대
음원
##내년
손절
##정적
##대갈
##400
정통
집사
69
##조의
떡검
##더러운
호기심
##울산
무효
숙제
타선
98
맙시다
##라던데
중증
배워라
##농업
돌보
##향
산책
##SK
원금
랭킹
##자랑
우울
발병
##개편
편견
##PC
##구라
키워드
##.........
아따
신세
##군대
더구나
탈세
그래요
플라스틱
##을수록
살림
흐리
늘렸
##여건
들어야
깨지
법인세
골든
##푸드
리조트
찔리
조세
최우수
끌어내
##장군
1995
이듬해
사라져
KBO
청와
##스러움
찐따
엄한
##문재
##낸다
의전
##아줌마
산림
물갈이
##성적
##삶
##재료
##％
귀찮
굴리
##유출
당당히
통째
일개
펑펑
아이콘
##치가
오프라인
섬나라
호평
응시
홧팅
##루타
까닭
던진
무척
##환의
##아래
컨디션
##퍼센트
수확
도청
##묵
벌리
급격
연평균
청렴
##준다는
삽질
강렬
##58
박람회
사격
##강화
행사장
귀가
STX
뷰티
앵커
##해야죠
##목
원자재
외국어
산업단지
무단
느껴진다
창문
바퀴
##읍
날개
소금
부드러운
욕설
900
##호기
텐트
만점
경영진
찌그러져
##격
##놔라
한눈
##그랬
##린
##꽃
##코드
##력사
##나옴
##중계
올려라
##수저
펼쳐지
달래
##버릴
맞벌이
봐서
접근성
정한
주간
열일
##비씨
##교통부
##회계
스쿨
고속
이모
키운
헬스
청사
물고기
##둥
쳐다보
병사
황교
##관계자
##니까요
갖춰
어용
##시립
개도
##배운
단말기
꼼꼼히
##.!
##한다며
태우
##나눔
휴일
와이프
잠잠
##이놈
고가
##림
입금
기량
실용
##㎡(
호들갑
심심
부엉이
##선택
표창원
저럴
조로
##영
휘발유
놀라운
##증거
##경우
##타이어
탑승
횟수
뺨
나불
##너희
수산물
와우
고리
##실업
TK
OECD
낚시
##발광
73
흡연
##여고
160
##기본
마디
##폭행
어린애
##투자자
취업자
##근무
수여
##59
유착
포토
##선물
냉정
시동
연예계
머물렀
##개의
박살내
##65
찾아볼
##단장
##마케팅
버전
부칸
발판
임마
계단
홍위병
안녕
분할
검출
법치
실형
##앉
그해
호랑이
어지간히
##넷
본색
여군
##인재
##록
소멸
##료의
셋째
##튀
짐작
걸맞
##수단
서면
##패션
학위
나빠
공무
##사정
악취
역임
소집
##기단
##타임스
우째
색출
##올해
##쌀
##작의
국민은행
##함의
종사자
떠올리
어쩌구
입단
내라
훈훈
하태경
혈압
바가지
우려먹
결과물
##원은
##내의
간절히
명소
버디
자택
지음
중부
결성
싣
아르헨티나
회식
토크
##온다
이메일
인문
경로
##뿌
##홍보
국론
총력
뒤져
동서
주먹
모자이크
입력
악랄
논하
몰수
##돌아간다
참모
머릿속
##성향
미달
##하늘
되풀이
판치
미술관
죄지
타인
##대금
마크
데려가
피아노
관할
러브
##개소
호수
적반하장
##지부
가요
고심
##원도
##결제
띈다
##종목
낸다
소독
훌쩍
##다니까
모아서
이승엽
밀려
활력
##청정기
안경
##뿌리
지문
드림
축내
지럴
썪
##궁금
##결혼
겨울철
더위
창당
개구리
섹시
긴장감
싸지르
살릴
##평생
##방문
##기대
케어
원수
##균형
표면
##위반
##기가
나뉘
불출마
유효
이루어지
##보험료
##꿈
##문은
동포
양식
접하
진도
글자
개표
유혹
달콤
프로모션
사라
##모음
과징금
복무
멸망
아웃도어
##할땐
하천
유망
##걸음
동지
##신용
피우
편드
서초구
##는구먼
태영
##800
중지
##창업
##철
독감
인체
개신교
네놈
결집
장병
듣보잡
##바위
##그림
동점
사고방식
애플리케이션
##네여
##co
조차
박통
##국내
영부인
##~~!!!
빠져나가
인제
ㅠㅠㅠ
클린턴
복용
LCD
안드로이드
호황
##홍어
##거늘
인명
신흥
모니터링
1994
##어쩌
응급
치른
##공작
늘릴
내게
본보기
##임의
##욱
##검증
부류
##중요
##멘
##뻔뻔
탈모
안산
##보고서
레스토랑
근절
치졸
세입자
최강
##유학
배우자
##사유
##추천
##줄게
사탄
방가
##떠나
사재기
광명
텃밭
##드림
중형
외곽
영세
보좌관
엉터리
부드럽
조별
찌질이
내세워
전신
나을
##벨트
그랜드
출구
발령
사냥
준표
무렵
권위
클릭
##자녀
분량
##튜버
##퀴들
활짝
제보
가라앉
지니
들어도
농장
##결국
체류
군림
거야
관계없이
집어넣
##개소리
그런지
찾아오
##한의
##채권
정의연
스키
실리
이상황
멍멍이
부른
인센티브
걸까
에스
애니메이션
##실의
내려와
소설가
##바랍니다
돌아갈
숙청
바짝
암살
일안
속내
축적
##릴
통수
##얘
온실가스
찬반
돌렸
주축
##채용
개망신
##시원
성남시
환호
법과
자처
바래
야생
##텍스
##연수
##과목
니미
##멍
업소
한발
##그때
별개
##호가
가져
얼음
##신경
이랬
용량
때로
에라
도달
세포
##더라구요
민중
나랏돈
##지난
에코
특강
##고리
구형
적도
자부심
78
##성능
사인
##전지
##국적
만인
일괄
##변경
##루수
보험금
##어치
증대
##부지
감자
회피
"(
##똑같
##햐
다치
##티비
정했
##근로
씁쓸
만의
##못해
하청
타입
아작
##축
올인
##더군요
주둔
외고
애국심
##불안
##아침
##인하
동화
방문객
합성
학술
키울
까먹
##교과서
##일까요
보임
경원
내뱉
공연장
##실패
발사체
##올려
성지
토종
캠핑
##웅
각광
책상
객실
총출동
통합진보당
돈벌이
##해제
교안
동선
봐야지
##대중
정해진
지역민
공고
합당
호재
증말
이은
##산단
살피
공군
전복
철판
환불
LA
##박계
귀한
에게
##막히
##수다
항만
##600
장외
##구기
사교육
궤변
보상금
좌석
##바보
##신가
##포의
옵션
##무섭
##더러
부스
강자
##생태
미련
골라서
##머니
육상
##세운
##부인
합치
케이
액수
독려
지우
버릇
오버
기다렸
신의
성형
로스쿨
수비수
펼친다
......
피자
##판단
전투기
##아닌가요
베테랑
##FTA
하루하루
사물
다룬
여인
##번방
응징
##마진
##컷
##볼까
##저러
전과
신뢰도
줄였
##여도
지자
노골
일명
##연장
##독립
시바
##수급
##선진
국산화
대국
슬픈
흔드
충당
선거철
셀프
노동당
개고생
파도
##~~!
##부에
극심한
견디
고립
튼튼
손목
설쳐
누군
조회
##본인
기지
편한
캠퍼스
##부러
##75
##도대체
장수
들어선
고스톱
가르쳐
선점
##닷
##자니
##도움
##차렸
문희상
##족의
치아
##대기
친척
##기아차
옮겼
나와라
##려던
대학원
기승
##늦
##콘텐츠
##미의
당첨
자폭
인문학
##내역
1996
##해선
##요구
조공
##길이
##즘
약화
이인영
돌아섰
개수작
저분
뿌려
멸종
##밸리
##경험
안달
차려
##기부
반환
사설
삼청
플러스
##스레
##시내
##분립
몰카
절약
빌미
등극
지원자
삼진
손쉽
##팝
이어져
눈높이
파란
부정부패
트럭
기성
빨아먹
지장
##전시
##캬
86
치명
서초
완장
코레
임용
부착
설사
거액
##안다
##어떤
체중
더러워
로켓
성경
##였으면
정화
기념식
##군인
떴
##보유
저질렀
##헤
##대통
##틱
으이구
##몰라
##통장
지르
했으나
비방
참전
음식물
지붕
기쁘
협정
급급
우방
##구녕
준수
저급
풀리
추운
직면
종교인
군부
도망
##친일
버튼
##다네
##피해자
하차
밥맛
잡혀
##미수
350
산정
##으면서도
선량
침대
##유럽
몰렸
세일
지갑
우익
##작정
쓰레기통
##지상
##납니다
까라
주름
##돠
##샵
진전
받아들여
버려라
해설
##옴
틀렸
##게요
현수막
승차
과천
연쇄
##예정
더더욱
증설
도널드
처넣
##슛
한통속
설레발
둘러보
##힘내
며느리
성범죄자
고추
생물
스페셜
구석
##복
무고
관절
실효
담합
남지
제자리
##조절
이목
##퉤
이력
##댄다
우짜
##위가
##수산
교민
##권단
정유
좀처럼
물어야
일기
치안
##취업
##공직자
##봐야지
맞붙
##글러
멍멍
##봉사자
##나베
경품
들먹이
대갈통
##번지
##자가
멀티
내정자
##교육대
푸틴
민선
##키트
질주
이따위
뺀
수성
아무튼
잇따르
비치
돌아갔
단연
꼴값
반값
##벤처
토로
##읍니다
추위
챙겼
##중학교
지나친
배민
동향
가축
##상도
##사인
쿠데타
그걸로
##려구
뒈지
고지
중권
망조
힘든데
##원숭이
##놔야
라인업
화해
##인디
커다란
법관
뵈
계곡
##전국
보금자리
##시계
공감대
부근
걸음
와라
클라우드
##㎡)
넘긴
거제
##무장
##SNS
##전기
##아깝
전세금
프리미어
훅
렉서스
김영삼
농림
81
타협
쌍욕
##수수료
##지급
쩐
해지
무거운
상임위
##랫
집중력
세탁
딸년
요양
골키퍼
타석
비대
커버
강경화
유학생
##그램
##수학
##질서
종양
##트럼프
빨대
합니까
##라야
##붙이
상시
##제공
##페이
금수
다신
영화제
온몸
신재
수십억
음모
일으켰
FC
선명
기숙사
해온
개꿀
##다간
태어났
##걸려
로맨스
##공신
뻗
절로
##구도
컴백
너그
둘러싸
건가요
우물
##침해
날렸
단합
후유증
##장소
버락
수혜
시행령
시켜서
GDP
###
내외
##탱이
오지랖
##패의
##유로
##촬영
##여대
##합리
톡톡히
출자
보입니다
닭대가리
시가총액
##노예
빠질
여신
개막전
저조
##월급
가져다
효성
차장
맛집
만지
##흥국
혐한
교훈
인선
투구
##뷰
한복
##H
미처
어쨌든
울리
87
##64
웬만
선착순
##아다
위력
통치
쫄리
반격
아르바이트
##61
##노무현
유승준
##당장
연체
중기
찬스
토끼
여배우
이용객
잡혔
머리카락
수순
실물
##세우
결승전
##격차
끼리
소각
남발
합격자
##탕
구름
오사카
##제기
##깡
전일
##닌
##손실
##광
챔피
대조
그리도
슈팅
역설
해운
EBS
학기
##댈
##화폐
아재
비열
살인죄
힘쓰
사이코패스
보궐
퍼뜨리
버릴
자위대
사주
고령화
상원
##흥원
돌려주
##대상자
침투
캐스팅
번지
고마워
요약
민영화
저랬
스카이
다툼
치러
##지점
##빌딩
구두
쪼다
인터
내역
##만족
두려움
##대에
성조기
크림
170
##외의
##관은
사원
키보드
##으냐
79
수거
천주교
##영어
##판의
직구
오일
##농
##륜
부재
모를까
비참
##중단
##학
주권
##부서
수신료
빙신
##학대
##핑
##강점기
볼넷
모기
##만세
##실험
오토바이
##컨
정신과
남구
##집값
궁리
농도
노회찬
말기
##라고요
헝가리
표결
1960
##84
##잔치
들린다
이집트
아카데미
유물
왕복
눈먼
##급식
소망
##시점
##매출
이상인
##숭이
들여다보
기르
##내내
동북아
우아
좌절
가야
굴욕
뭉치
흉내
댄스
버려
과학자
##간다고
##점유
여행사
대우건설
##낀
83
너거들
##배치
##건축
97
##강간
##행진
무겁
##제작
##쯧쯧
상사
뿌린
임진왜란
96
##주의자
밀어주
조현
컨테이너
공문
##기도
##규
특별히
뒤질
##맙시다
##CEO
나타난다
오디션
돌려받
망친
꼬투리
우상
라이벌
##할수록
##본데
자빠
도모
예년
##의학
94
##할거
##띠
싸워
단호
##매체
##손해
조원진
##친일파
##전력
이준석
넘어선
멋대로
사학
##구간
부하
내각
92
양승태
##위조
미친개
어기
##시각
터치
보단
##이탈
모자랄
폭도
##EU
##63
분단
뒤진
망해라
쿠폰
콘크리트
##혜의
공화국
후반기
기밀
##조선족
수억
펼칠
허구헌
킹크
##석유
##광부
##원님
터질
##구단
##72
상종
이빨
외식
대마도
향기
##2015
태평양
입술
태워
니나
보훈
##덴
허경영
설득력
모래
척추
늘어난다
장기간
도장
늘어지
개소
##씹
녀석
##게나
생색내
엘리트
##고사
생각없이
##원칙
##면세점
망해야
##줘요
쪽발
아무렇
말세
연임
##년놈
껌
상습
그런다고
외화
경신
방과
급한
복지부
##동포
성과급
사외
낮춰
##뀌
##나경원
유예
##랭킹
알뜰
도리
공정거래위
##최순
중년
##T
화상
싸울
잡아가
드레스
반찬
다녀
##포장
장거리
시위대
무너졌
동반성
들어라
묘사
##선이
##문죄
불린다
상속세
후안무치
##겠다
은혜
견인
하하
##형제
줄곧
우호
조두순
타결
mbc
한자
##폐기
부적절
누워
한판
폭파
##어느
##시당
징징
참여연대
성장률
계정
제조사
##엉
영주
원한다
##비판
월요일
단절
원피스
##테크
응답자
복직
##전용
##근성
리콜
오리
허구
박근
##패거리
소액
획기
훈장
소나무
승자
##2012
##사격
##도청
퍼트
커서
조류
속의
과거사
골자
속출
##남편
짜장면
##읍시다
##62
잉글랜드
##기소
##매장
허브
##재판소
대피
##라던
##이기
##진출
저쪽
기용
발부
긁
각하
##침
면모
##도둑
취업률
##든데
창고
##공격
이뤄지고
친하
모니터
우연히
##쩌
물의
캐주얼
색다른
파일
남미
각성
##녕
스윙
##비자
금태섭
산업의
##윽
조문
의약품
신이
공제
##확대
##처음
교재
꼴찌
일본군
##매일
훗날
꼼꼼
##짜증
밝힐
기회주의자
##품
장인
쓰레
뉴질랜드
제어
북송
##틴
저하
##강전
교정
과실
달려들
##조장
빌붙
걸러
경제학
##져야지
모비스
가식
쪽팔린다
쌓여
접전
혈관
##나미
이뤄지는
천하
##학부
##고급
장하성
##할꺼
##혈압
요원
YG
소극
종일
특사
##정은
ㅇㅈ
사살
##박사
##위안
유신
판교
용병
##단식
번의
##아닌데
백배
들어선다
사이즈
##장악
이쁜
유산
##검진
논평
골수
휘둘리
시킬
##2010
##부자
##섬유
들어와서
저승
라이프
살만
정세균
걸친
끌려가
##범죄자
##셧
양도세
##닦
##망국
##비디오
중국어
가져오
##바다
##러시아
##부탁
여왕
개조
건설업
여학생
매경
종로구
주춤
학문
황사
막강
포수
탱크
안다고
정신줄
##mm
##할까요
개웃
상상력
생각난다
##라이들
과하
##아저씨
고생이
간만
두껍
허술
표창
##--
녹화
산소
골고루
부양
대개
산학
잡힌
##끼치
휘두르
##아녀
수감
남다른
##게끔
##스토어
외제
지켜라
##홍
미드필더
##가게
공모전
##휴가
부임
##나의
그라운드
##합병
##활의
마음껏
##선발
##줄까
##탄소
##자빠졌
성찰
호날두
중산
1988
외쳤
##규정
##메시지
##지도자
차명
심보
##농가
아닐까요
데이트
##라지
##마련
가이드라인
관장
##학력
##헌
##직업
가죽
포트폴리오
사우디
올라서
방북
##불법
어쩐지
##대체
##활성
설리
진핑
##또라이
##라기
워터
자립
패밀리
신자
본래
화폐
만찬
금요일
내려라
##파괴
회생
마침내
##검토
고등어
기미
전사
주어
##항의
##힌
절망
##비교
tvN
햐
기다려라
##하이닉스
##로선
##2016
교복
날아가
기관총
라이브
##.,
꿇
##소릴
##제주
##무죄
줄여야
##롱
당명
수백만
무실점
먹히
신약
##무리
나눴
알릴
축산
냅두
##99
올려서
##처의
##기생충
고로
져야
발걸음
아티스트
들어설
##닥치
##밭
남로
남짓
대법원장
퉷
운송
##망의
##콘서트
으휴
##약의
자멸
글쎄
볼모
112
조종
어따
자란
성질
열등감
##가입
들이대
터널
##학위
##가를
##픈
자초
이석기
특급
##중독
보람
##선전
대지진
염증
##한다는데
검새
남측
##L
차분
와이파이
##어린
스튜디오
숨지
친한
발정
##큐
##어다
NH
내줬
추후
##해석
참담
##진실
경관
다녀오
과다
김현미
##써서
##맹
##몰라라
##경주
욕망
##대왕
대부
당근
가담
##여라
돌풍
아이구
오케스트라
정점
전임
회원국
사직
##토막
IS
간격
넓히
메시
풍력
책임져라
동맹국
##사회주의
~~~~
옥수수
체질
쏟아져
희한
포스터
코오롱
##통계
보증금
개국
##례의
구할
타워
##내라
##회수
단백질
스티브
##노동당
해야함
상속
막지
계신
##겨울
벌여
센서
##궈
##말의
여행객
궁금증
고성
##소득세
걸린다
나타날
##제약
비추
충청도
발등
##깜
전철
장난감
호도
##복의
의리
##회원
관내
공존
동문
##지시
셔츠
대행
##노선
떠넘기
종업원
빅뱅
인삼
교감
잡아먹
컨소시엄
##차관
천벌
개원
##연전
미미
목격
원흉
##해외
열폭
대사관
가늠
##밴드
##2013
팽팽
올스타
##보료
tv
##지내
하얀
##승의
방위
까보
소명
유서
지루
트레이드
보류
업데이트
##셔야죠
쇠고기
고소득
##900
넥슨
양호
##뎅이
인적
과반
페이지
풍기
##텐
##중소기업
##표현
남아공
동탄
올라온
영하
##아버지
벚꽃
##'.
##단속
이건희
남용
적혀
증액
애매
식의
면역력
연기자
모녀
##하루
##샛
열광
##방위
##뎅
좇
꼴리
##어찌
##실수
##커피
인권위
##확보
##셀
조져
의제
기피
##던데요
중고차
##져도
최후
##700
종족
건네
##사법
송금
본토
##집니다
열흘
##참사
다큐멘터리
##했어야
타도
백제
터뜨리
딱히
구사
표적
구상권
매니저
입수
자손
신년
##균
누군데
앉혀
##발생
##기업인
비열한
대치
어두운
신재민
##2014
논다
깔려
에이즈
짝퉁
할리우드
고비
용납
즈그
쌓이
멘토
애써
뒷돈
꼽혔
##당께
##열차
개개인
띄우
계파
창구
##마크
##조선일보
무더기
흔한
##절의
##77
##버린다
##바란다
사케
김원봉
##윤
치부
옥상
올려야
짜르
검색어
93
내려야
썰
##페스티벌
반기
##씀
##웨이
올라왔
##요청
장난질
페이스
##븐
##보선
후임
백날
##소비자
##들이
##내려야
뒤졌
##독
##융합
##찬성
##선일
르노삼성
홍수
항소
##주한
고마운
명동
떨어뜨리
에구
명확히
##헐
낯선
욕구
싸구려
어리
숨졌
입양
수지
##미달
모처럼
##숲
치과
##그대로
##목소리
형상
##🐕
쌍판
흰
퇴직금
예민
##빚
판문점
##뉴
김건모
스파이
##!!!!!!!
낙마
##등신
여정
##개판
끌어올리
##클래스
제의
##고문
최적
써도
채취
##하네
##키가
내세웠
자비
여적죄
연합뉴스
##닷컴
국기
권장
태세
알지
교묘
학계
키즈
품위
경향신문
백종원
89
악영향
산업은행
##쳐도
릴레이
배럴
배분
돼서
로고
재테크
캄보디아
xx
완치
부시
##면제
##숨
초보
##수첩
##독교
함정
사자
##토지
##..!
미꾸라지
##을래
떼쓰
밥상
자주국방
과자
현혹
유능
자중
짜리
개인전
낙찰
슬로건
##굿
전례
모드
##대박
서식
도출
징그럽
##대사관
선원
##더라면
원작
어색
예매
행적
박주영
##노동부
달라질
##샤
석사
잼
사령탑
##진이
섹스
자정
##공화
방탄
##징용
소용없
건국
징징대
양자
##래도
##비전
때린
##..........
91
생색
지성
##태
우회
책임감
##기차
원로
시내버스
승무원
##증가
##파티
비위
##건만
본성
화끈
##66
가성
노친
안쪽
끼워
간다고
##중앙지
|
인맥
공채
차종
OLED
특집
결함
해병대
오리발
##꿇
불어넣
챔피언십
아가
##콘
##특히
##턴
방송인
서점
링크
부메랑
##무식
##면접
##램
나아지
넘어갈
전향
##호구
##라지만
노화
출판사
##고생
가까워
소련
시공사
##94
날조
수요자
the
견주
놓여
##논문
##휴
놈의
국책
##청아
허접
##인은
##주장
포괄
##쿠
##눌
##나마
##인대
챙겨라
##학자
몽땅
##거짓
##팔린
##합
토해
미지수
행운
1300
##질문
멈춰
아시
##몰랑
경사
##감각
양키
외압
트랙
##공고
넉넉
참신
##역량
권역
##GM
대주
나주
##파워
##한다니
탈바꿈
##아무
단골
불꽃
꼬집
중진
##목표
끝장
대리점
심했
늘어놓
민망
근간
들으면
##방어
##정서
거래소
틀림없
기리
취재진
탐욕
몰두
쌔
역겨워
##럽
아사히
교역
실책
국악
##화법
털리
이걸로
ETF
##마드
##딘
어린아이
저따위
브레이크
##천국
결실
사임
꺼리
권영진
차릴
##요인
맞췄
##의미
의정
경쟁자
사용자
여주
##니들
##동원
DJ
##바닥
증여
##다던
##순이익
##눔
##소식
동쪽
반사
##냐구
출처
##고기
물러가
활기
메모리
부합
야구장
##반도체
##01
귀엽
##00
##자살
팔렸
대금
##접수
스승
이면
##톱
들어올
접한
서둘러
ICT
수천만
##느낌
농어촌
분담
전문의
배추
근원
##칭
1992
증진
서쪽
대주주
##불통
##상인
##했어도
동감
##용역
다녀온
##복판
엔터
유체
무너진
똥칠
떵
예견
##홀딩스
에고
##자문
##친다
##반응
##포함
메신저
##역할
어그
국물
겹치
##황교안
허수아비
##국지
##바이
원격
##정의당
##래요
보건소
걸어서
선보여
바랄
맞춤법
업주
##연봉
천사
##67
여섯
##폴
희안
##일정
유치에
올라갈
##송의
##신다
별짓
##민심
땅값
##반성
조립
주디
국가원수
##승인
월북
보답
억압
##통닭
보이스
##우한
욕해
막바지
낙관
암울
일본어
유네스코
##부끄럽
송파구
가르
회사채
용감
관제
친정
##군사
처한
카카오톡
법위
##기온
찔러
##지하철
총액
손발
야기
어선
결선
거래량
죗값
##2011
출세
##우주
##어선
운동장
##복무
용이
##팔리
##껴
1987
##굴
실어
누드
소굴
##련의
다지
가혹
폭등
제사
취해
필터
모르쇠
공로
뽀
폭넓
그림자
장례
태권도
##보안법
컬렉션
NO
집합소
모발
후폭풍
##전선
##아무리
##이야
##담배
최첨단
##인프라
샛
##싼
##회로
인양
학점
##대장
당나라
신천
##시행
졸개
##지인
쏟아졌
돌아서
학부
보냅니다
비트코인
반문
##혁
본받
환원
##익
본능
돼지고기
챙긴
흘러
딱딱
##힐
소유자
##해산
간직
가로
머지않
옮긴
단단
적임자
홍삼
##직전
학생과
귀농
##입시
베를린
가정의
재해
교섭
멘탈
선한
정정
기법
발라
보충
목동
가미
YTN
쓸모없
##시트
표방
광복
소득세
촉촉
1993
파급
참수
직시
##식구
##수상
##부총리
올라갔
세단
분주
##가로
재용
페북
서브
벌벌
수성구
달려가
악기
재임
##스마트
지친
담임
참패
##평균
한잔
##조심
간주
페미니즘
강성
##진심
미쳐도
보낸다
도주
##s
증오
##보조금
##비하
떠날
주특기
지극히
맹목
##느냐는
중의
##원회
내다보
불의
리드
합계
뭉가
대명사
##어가
##니스
지리산
##68
##범위
##동이
##라구요
##~.
비공
##체전
나올까
안쓰럽
면역
##운운
카지노
##그린
만든다
##수호
히틀러
회복세
넘어갔
한기총
창업자
고무
용의자
계엄령
질투
차익
원고
감금
위헌
##69
퇴장
퍼져
표출
서방
홍영표
##조성
##2017
해변
##목숨
우체국
초록
살린
방구
극좌
드러낸
일감
준다는
##내놓
재즈
신원
##곧
##기억
아시아나항공
##바비
##할라고
바깥
지겨워
도마
함량
만료
다가왔
불러서
검진
가두
하원
##소녀
##스쿨
잠재력
후진
일으켜
벨기에
은메달
##미당
변질
유쾌
적성
##질까
##연속
고구마
##어면
만도
장본인
##땡
##득
전방
##배구
##상환
라운드
센스
안겨
##저리
포지션
앞섰
붕어
아마존
피겨
저절로
돌아올
자의
나간다
왕창
들어섰
카풀
코앞
치사
일보
러시
나치
택했
##진행
##업과
선호도
통역
##철학
팝
민변
확립
유류
##**
##밝히
호감
변한
나노
탐방
죄질
부역자
세탁기
원대
싹쓸이
원본
##인자
문치
가릴
노래방
압축
자수
##였을
두께
동남
줘야지
##인방
MVP
무늬
##이틀
장벽
어느새
##배의
##뻘
만행
원안
##예약
신작
##사형
만난다
LNG
국보
꼭두각시
납니다
파렴치
2022
다닌
몰라요
강구
포용
공지
반칙
허물
가이드
##지정
부친
##가장
꼬박꼬박
##준의
시의
##윤리
성적표
거실
초콜릿
단가
바둑이
몰표
##그라
가둬
항소심
확고
과열
몰린
##드려요
거칠
슛
산재
발송
##야겠다
임박
내장
극히
##떡
##답답
이국종
골드
심히
박찬호
##2009
##리들
증폭
뒷전
떠오른
클래스
근접
으이그
안전성
잃어버린
개이
터뜨렸
향수
##오의
뭡니까
##교주
예술가
##호감
##앵
무례
지난번
##휴직
독립운동가
##소환
자네
##소리야
동메달
보좌
##냅시다
입주민
##습관
무제한
##특
회전
##똘
승마
욕은
발암
##병의
웹툰
##??????
망명
고고
##송
##됐으나
##근로자
뱀
마찰
##속이
휠체어
거듭나
##불능
보유국
옆집
수직
정교
편이
단정
올라간다
입문
##주위
##그런데
둔갑
학교의
대수
의석
시야
##승점
성립
##두기
수수
달려드
##보낸
엘리베이터
무언가
##퍼시픽
개막식
워크숍
액세서리
차등
쉼터
그나저나
표절
변해
##차단
대지
##할께
빈곤
동아시아
검열
##👍
속한
##코치
사니
소나
##일어나
호조
불로
가져야
국도
유급
##관이
##랭
김여정
창궐
소고기
##.!!
치른다
1991
탄도
강대국
##견이
기업체
밝혀진
미뤄
다녀왔
##들리
단기간
구구절절
넘쳐나
이태원
;;
도가
그렸
전작
카리스마
반기문
심신
뺄
다녀라
모은다
분배
개탄스럽
덴마크
##방역
나흘
##자도
##신분
절친
##자르
마사지
살살
##분과
##폭동
##71
앵벌이
일체
##어서다
취한
숨겨
강해
##제일
아까
유재석
한식
공표
빨라
미얀마
무더위
김장
글씨
의인
시일
홈경기
원산지
필자
##나간다
망해도
재편
섬세
금강
##왜곡
몸값
유가증권
통행
시티
키스
##악마
이해관계
##총생산
치워라
일조
##빅
##터널
자백
당권
##외국인
##건수
드라이버
##원자력
모텔
머니
##렸
전송
맡겨
##걸렸
표가
이성윤
맛보
고부
개콘
오피스
##지라
직결
##비시
상해
스피커
##농장
도우미
##태극기
간식
##의무
속아
초월
원룸
놓인
잔머리
##비서
레이저
##춤
##부패
##실력
부수
##차장
##얼마
##엑스포
염원
당국자
할래
해피
통진
망가지
순공
쌓인
굵
##파업
하우스
간신배
실사
근성
대법
털어놓
##속의
##서류
발족
반갑
지독
클린
경제성장
자매
##맙
평가전
대본
고위직
##통하
##또한
##자율
##수행
밉
치렀
##서로
올라섰
바이
농심
배워야
그토록
##대해
차이나
처맞
##밥통
양의
벌일
사회생활
##물건
문턱
여력
##구민
포부
리비아
질의
##포스
9000
총동원
속옷
일행
##스톱
재조사
들려
국세
개박
치가
유난히
퍽
심재철
수영장
당첨자
만끽
##느끼
깨어나
##엘
문다
웨딩
원서
##이가
찾아온
연중
##후손
입소문
핵폭탄
가나
##그동안
호전
##자책점
어때
무지한
펼친
자존
##꽈
도보
깃발
구치소
##상식
귀여운
##뛰
헉
때렸
##동기
##예고
##혐오
##아다가
패러다임
꾸려
염치
시전
삼겹살
기껏
유보
벌인다
##파구
##혼
배현진
##O
타깃
악법
입체
붐
##사회단체
친분
실점
치워
버텨
저의
상자
말려
경쟁사
##검장
손길
본점
????
##문자
카타르
재기
대갈
덩치
서열
속초
검경
##구야
대략
##베야
비박
1950
대여
OUT
벼락
##AI
##동생
마늘
##85
임산부
##표시
경질
엄정
##회의소
게시
사위
살수
변형
경기력
티나
판국
##접대
종사
##결의
##지진
##교환
답글
##공공
##렀다
##확진
##로구나
득표
비대위
파행
공소시효
文
##ㅏ
##정산
##넼ㅋㅋ
##스러웠
사각지대
책의
국력
무분별
##연예인
##엔진
기침
역동
품고
내편
존나게
몰살
##;;;;
가라
떡볶이
환승
##미일
##냔
##내려
##야드
몰아넣
##유아
의구심
난무
끓
너무너무
##데리
헤지
보직
외교관
국영
성균관
LS
곽상도
법칙
저소득
한국전력
##달이
##베스트
세워야
처신
유나이티
##모아
중심지
우정
1800
더욱더
징수
##추적
유기농
기업가
##으니라고
##식사
##려다가
전성기
사소
능지처참
문체
정전
##조례
##그래야
언주
남산
강국
##더럽
##수령
산행
##돕
##대국
럭셔리
주당
##렁
드라이브
여수시
이송
출소
작곡가
한적
##강행
직위
##보였
단교
101
이기주의
##열심히
##스스로
##보가
이정현
적국
골퍼
감탄
##♥
소년법
##차라리
가꾸
마이클
적힌
꾸미
싸질러
##응답
수정안
뚫린
##법상
갇혀
##매매
반감
순차
하와이
공청회
쓰러지
입주자
문주
실종자
개교
핥
1600
송파
##치매
주시
일과
##",
약해
상공
공헌
푸드
경희대
##레오
스프링
##어휴
폭격
소스
비비
##벅스
하소연
##극우
##청이
##특검
##보전
정수
쪽팔려서
왤케
##최근
전교
굴복
심상
##동시
쒸
승계
밀접
형국
##어야죠
날치기
##늙
저래도
븅
조망
##애기
혹시나
뚜껑
정문
##직의
쓰리
받아들일
통로
강북
##핑계
처우
울산시
##지출
이산화
교직원
맞물려
전념
##실과
불거진
털어놨
익히
조속히
벤치
선방
폭스바겐
##지로
출산율
"'
##선거법
윗선
##크림
지만
모른다고
##~??
추출
##광역시
변동성
앵무새
밀어
한시
영탁
##붓
안중근
여겨
공룡
노무
원형
몰입
##청탁
앞바다
소홀
병력
아우디
##문화재
따내
렌즈
##노래
##CC
신곡
##그릇
초중
씨앗
##헌법
필름
종말
이의
트라우마
원동력
죽여라
##갤러리
나물
오산
디질
태생
택지
of
끌어들이
##수수
보너스
순방
압류
##강남
하도급
##편성
이산가족
추접
점거
댐
묵묵히
승승장구
바뀐다
막내
김태우
##고속
잡스
교양
##사로
작곡
탐구
행장
##클
엔트리
행세
##GDP
##해체
각별
##더라고요
##~~~~~~~
돌아와
한일전
광교
쓸데없이
영리
시에
##알바
##이득
살렸
이치
##그걸
##이명박
##데기
게스트
##흘리
기둥
만일
육갑
##기념
잔액
##.??
또래
찾아왔
##색의
올린다
외노
레저
##다냐
남양주
박살
초선
##과거
간절
붙였
##나서
흠집
명은
승격
이긴
분해
제네시스
겁먹
가뜩이나
득실
##이웃
##교과
짓밟
노벨상
수갑
살포
권력자
활개
##모독
남경
지킨
산지
불쾌
저작
열매
대항
약정
생전
##조금
달빛
사귀
띄워
##규칙
##을껄
특위
소가
LPGA
MOU
검정
뿜
정신없
로마
유상
##어린이
단체장
다가가
뭔가요
엥
유로존
하수
밀착
조선인
적화
누른
부결
따름
교차
무마
##소통
잇단
출력
암만
가치관
##증후군
저렇게
일삼
예보
벗어난
음모론
애새끼
브라
줄어든다
나불거리
##탈출
꼬우
안성
외상
AP
조업
불렸
뿌듯
##낭
덜떨어진
##만이
한껏
빨간색
도태
##아가
##거려
##쇄
버젓이
사라진다
점프
커진
숙명
##돼요
##앙도
##운동장
아이패드
##염병
대일
##롤
임의
##전라도
막혀
쿵쾅
결말
선비
##최대
##옥
##톡
발음
발레
춤추
##뱅
##성공
서리
##부로
##독일
파손
이리저리
경인선
##덕분
동정
등골
깽판
불씨
버틸
무슬림
1100
##내요
##입찰
송구
무너뜨리
##탱
조선업
##준거
##는지요
반중
승소
##다의
##심하
##펴
향했
하이닉스
전기료
##정국
부끄러워
##증명서
##특구
승률
임하
##표준
죽여도
민자
실속
아모레
##나쁘
나대지
부르짖
##쌔
질타
판단력
샤오미
##조달
##바치
##물류
똥구멍
장시간
##상금
파생
##투성이
미션
사옥
쏜
공판
쌈
위인
##마누라
보습
##무의
아이스크림
따라잡
산다는
옮김
##원비
현대모비스
합산
해대
##세포
유래
##대처
##진다고
신비
##았었
##프로젝트
##진료
##소수자
세울
저감
드립니다
##관광객
막론
찬사
##걍
고공
##요소
신사
##모바일
불허
추해
후문
성주
##젊
##분위기
소시
오승환
거긴
사막
##난의
##하도
의존도
거센
광복절
월평균
흘렸
자숙
제임스
##책의
화사
##요리
모듈
공적
##05
영화관
##일부
##자세
반란
다운로드
##GB
인질
노숙
##라이트
노조원
넘길
##니라
##써도
주상
어둠
가재
잠수함
##***
횡단
반정부
수월
붙인
##정리
머지
##육성
싸잡
공론
추월
세기
제대
분통
광우
1989
광저우
호칭
##잣대
##따로
줄줄
준우승
현대캐피탈
차림
베이스
항구
맛과
전경련
댕기
##웃음
##---
##타가
##겻
중위
##스키
코로
기습
##시네
##치우
토막
##시인
연안
민사
사노
##샀
사거리
연차
시다
##73
수산
온전
##어차피
레임덕
##버림
공이
##더블
빚내
수익금
살아갈
전산
외관
오찬
매뉴얼
마셨
##현직
가산점
보라
##감시
줄지
소매
마실
내비쳤
썅
##취록
총알
베스트셀러
##유착
쌍둥이
##칩
지주회사
이화여대
흘러가
갈라
고딩
드러난다
##할려면
하드
##갚
노태우
생겨서
1400
##한번
연명
진단서
유은혜
IoT
호투
접대
##드나
##IC
##폐쇄
##정보원
##리스
무소불위
##유시민
영남대
오브
해야죠
##문아
침수
알파
##중동
여성부
안감
당은
##스케이팅
현대제철
양대
##스러울
일으킬
잔류
홍대
##앞잡이
직격탄
북유럽
줄여라
한파
수출입
비닐
심혈
두뇌
도무지
##보육
운영비
성당
선심
쿠바
##사망
캡쳐
구린내
아베를
##벨
마드리드
이쪽
##졌으면
포스
불화
##로움
온천
말레
##야죠
축사
위태
인파
최경환
군의
의료비
정자
지켜봐야
상봉
버림
장교
##성분
계급
##감소
학사
##분쟁
단편
소식통
광범위
VIP
##벤
##시요
##키는
바이어
침뱉
##끊
시력
가처분
써야지
이동국
직영
달러화
취득세
##가운데
학년
##댔
입장료
거창
독선
돌봄
숙이
한중
##한화
##신탁
공립
담겼
어김없이
##금속
응급실
전시관
아우르
--
##개동
당뇨
##레저
##웨
엑스포
지름길
만루
##하락
##국은
웃돌
##추가
240
##겠지
##소대
마니아
##왈
뜻대로
재차
##올린
일한
짠
사명
##분별
##봉쇄
거둘
##당해서
동성
##예선
밥값
농락
장성
의하
##와야
비준
##74
##라우
벼슬
교내
자치구
##봇
열사
##경비
아일랜드
블록
좌지우지
##이미지
한인
의협
연면적
VR
##민간
물결
전이
##존재
보름
시설물
빌리
첼시
휴지
##욕심
두꺼운
휩쓸
오징어
##갸
경연
##널
가전제품
촉발
디테일
국밥
뽐내
스캔들
450
담장
법제
정은아
##대교
##공식
거른다
억대
##㈜
심플
주입
파키스탄
여행지
앉히
딸래미
이북
##감과
컨셉
대졸
쳐도
반쪽
보수당
유흥업소
모지
##강국
햇빛
사업가
이것저것
희귀
레이더
양은
할까요
##술부
다투
서해안
정상인
##품질
##주차장
##신도
바르셀로나
정쟁
칠레
##95
몰려들
림종
360
##대결
배구
##우수
잡아내
매몰
유럽연합
외환은행
##겹
##이시아
로드
찼
짤리
안면
방콕
워킹
주어진
구했
흰색
납입
박힌
비서실
알코올
갈아타
##따지
트리플
넘어지
화살
대원
어울린다
팔자
##03
##이스트
한양대
볼트
위의
##中
언능
나뉜다
화난다
##롬
이재정
유적
##미세먼지
팬츠
##선아
비굴
미필
힙합
##기적
여느
대검
박태환
맹활약
셰프
투표용지
##렌
크로스
##측근
##멍청
정세
강진
웰빙
저능
##달라
##진과
환산
비로소
음악회
##왓
##변국
##경의
계승
대의
##전망
풍자
그깟
##축산
윤석민
무난
##총경
헤쳐
##차기
##대요
집행부
출현
달해
카더라
완성도
효력
##마디
생리
##쩝
푸하하
수송
선거전
경산
덥
##성동
성실히
밝혀내
봉준호
주파수
우뚝
어우
##차익
처참
수사관
판다
추대
어민
밤새
##고와
증여세
고위급
뭉쳐
##왕따
비법
당뇨병
후기
##그거
사비
약사
##필드
주어지
##뽀
상세
밑바닥
드문
신입생
전가
내준
##작단
오락가락
발동
디스크
무승부
##믹스
익명
오키나와
짝사랑
똥오줌
##상선
가문
속셈
##할텐데
훔쳐
애잔
##차선
서거
양주
구독
##놨다
퍼줄
##죽여
손주
높인
챙길
날린
응모
실수요자
지워
바글바글
분신
지각
##꾹
##은행장
닥쳐
안주
장마
턱없이
아부지
총질
퍼졌
르노
##할인
##남대
노동부
맛볼
백두
머물러
##적용
잎
강정호
##파일
핀란드
차트
왠만
!!!!!
깡통
견본
혓바닥
##풍의
구만
##이념
불우
협동조합
낮췄
##로드
쉬쉬
대전시
##화대
##>,
포진
만회
대단히
위기감
실드
소프트
밀어붙이
##카메라
환기
##망할
사육
특전
##와도
계약서
##기초
##라이프
테니스
마포구
##꼼수
##보호법
총사퇴
평상시
출하
##오후
일자
##투자가
한없이
침입
두드러기
경인
재판관
##지분
쪽팔려
악순환
상위권
##타로
설탕
동물원
면치
##덜이
비상식
급성장
##꼰대
##스테이트
##최악
삼성증권
##~!!!!
우매
벼랑
절박
못생긴
##레이
초미세
법령
##쇼핑몰
당론
##포스트
플랜트
잔당
##사무
말년
막가
실습
##김치
전진
무사히
##유발
##~~?
접종
상한
효자
폐암
신안
##인해
##주주
비꼬
##랬
키트
노린
##연령
엿같
안티
판로
##공업
##빕
가결
미사
줘서
##치킨
##ㅠㅠㅠ
착취
강타
##76
##달의
##자는데
집권당
정반대
CNN
조주
주저
##으려나
##뵈
3500
희생양
보물
몰아주
퍼부
내려왔
망나니
시멘트
촉각
##연설
불거지
##뺏
넓혀
복장
동무
공소장
도피
간다는
명도
사회주의자
구실
##전공
##부제
##쪼
안하무인
퇴사
##팟
벤치마킹
##장난
치닫
##썅
꼼짝
이견
건다
저력
##비나
우승자
##기네
어땠
##피싱
개떡
응하
인쇄
##관장
노르웨이
선처
아웅
열등
##마비
춥
상납
##가즈
##채우
여혐
야근
##권한
##감수
별것
포격
##국제공항
##교대
닛산
유망주
우릴
뺐
본국
매달리
강서구
꾹
치욕
격추
##노력
##뎌
365
##안타깝
중화
벙어리
특색
##살림
##중국인
출품
유치원생
방관
No
감형
연탄
충견
원점
신앙
##단어
갸
##세이브
앞세운
거취
##외국
##메일
가로막
##양성
경제력
##간섭
##예의
##노동조합
혼인
랜드마크
절제
묵시
##냄
##구로
화성시
##동지
##언의
##통과
모호
도끼
인가요
탈취
##보안
적금
어떤지
부평
난방
##간부
##...........
cctv
포천
한다며
색이
깨져도
##콜라
##실망
나락
광양
##책임자
##안철수
천황
변기
문어
##박의
기류
전선
##플랜트
유인
과언
장려
##영리
천장
소품
텍사스
##한태
제법
##음료
##수와
먼가
청도
##섭
##기분
노동조합
##출연
##펜
평창동
응용
##비례
전대
제격
환급
##네이버
리서치
봉투
치즈
이뤄져야
##상사
방사선
뺑소니
자빠져
##모으
미친다
요란
판타지
##화력
짤라
사나이
성수기
도래
##마력
소모
오렌지
재래
토양
사운드
곤충
줄인
횡포
##ㅇㅇ
절단
덩달
사양
당정
##증서
마켓
##찬양
발뺌
짜릿
방출
##무사
벌어질
##빤
김영란
제작사
경호원
각본
칭송
종가
섭외
글구
이청용
침범
깨끗이
그쳐
맘껏
폴란드
송중기
엇갈리
무너져
사방
##예배
지켜볼
빌라
##북부
농단
열쇠
ㅍㅎㅎ
##어벙이
구더기
##제조
##앨범
대란
능가
어렸
##82
알루미늄
박병호
그늘
구직자
해역
어우러진
불상
##소음
딴지
리듬
##애미
마포
해커
여동생
##개방
우발
다이아몬드
숨통
##사범
마저
##텔
경수
최장
##우려
차가운
재미없
##로봇
##영웅
강정
무용
폄하
##창의
105
##는커녕
진통
소치
효능
간경
김천
예언
##왕의
##서울대
힐러리
##사자
벌금형
##법무부
탐사
메카
##락의
충고
극찬
##동아리
꽃길
##십쇼
##창아
##죽일
찿
##㎡,
철폐
매립
##대만
사돈
면죄부
등기
일식집
분수
내버려
서울역
##💙
로펌
분란
실버
##사도
똑똑히
영수증
##바른
목록
##귄
커지
##꺄
##단가
백두산
##해서라도
계약직
시상
제때
##증자
분포
##경선
소용
##상품권
논점
imf
돌려보내
미스
복권
##항쟁
손대
활발히
유병언
나눌
해수욕장
대남
내서
##업소
##깍
##일거
##싹
##국정
늦추
박모
##전사
##케이스
데이
##밍
여실히
짜장
아이러니
만주
동등
한국사
##었잖
각기
##지침
샌프란시스코
기점
신생
관문
##상장
##색이
독거
당사
입성
울릉도
공시지가
창설
아이고
##범의
정장
적시
표지
금전
##이냐
##줄려고
##은퇴
스태프
##부세
자재
##사령부
바가
취했
뭉개
독보
##갑시다
순조
철없
##오일
##연구회
##I
##기밀
수출액
걸려도
사냐
부쩍
할려면
대담
모질
##2008
어벙
지형
서두르
##숍
유관
루머
장학
흘려
폭우
회화
지지부진
장례식장
리본
신성
공업
##도지사
갭
화답
##비싸
문항
고등
동국
지방세
##딱이
널렸
만족도
낙후
담화
화풀이
586
뉴타운
유저
##반일
##F
로맨틱
설훈
절벽
명함
##놔서
여객
업자
합법화
취항
브라운
죽이기
안전사고
듯이
야심
##외치
난감
##누나
##바기
제왕
치러진
개발자
골문
##우선
묻히
##디스크
박인비
주어진다
##깐
김광현
쏘나타
기관지
항일
나부랭이
##가명
폴리
체육관
##컨설팅
신분증
내국인
##인민공화국
주접
외양간
세심
가톨릭
유언비어
소행
##아픈
둥지
유령
##2018
##충남
항복
중앙은행
쯧쯧쯧
겁니까
##젓
두지
진한
종결
##그렇게
신용카드
220
ELS
장례식
##대생
움직일
개호
국민성
사용량
새꺄
전반기
얼어붙
문경
자아냈
전과자
##토론회
딛
무얼
줄기
이불
살아왔
도왔
##훈의
##스토리
OK
교육비
메모
딴소리
안목
##킥
뜬금없이
SW
칼럼
##미치
##해고
동대문
딸리
에피소드
심층
내려갔
지방분
방망이
무성
신속히
행안
##04
##장도
##소름
업고
만연
계약금
피력
열망
##가슴
광역시
산출
통곡
우산
##잊
이닝
##대주주
분식
햇살
노비
자선
언젠데
##사찰
##협박
朴
상설
조또
108
##요법
여직
TF
##출마
설날
탈피
원치
피고인
달라진다
##녀석
##심각
##베트남
역점
갯벌
전량
궁극
염색
마침
위촉
재주
##선고
기성용
어벙이
심기
##한가요
도울
학창
딸기
안보리
##아야죠
로드맵
방산
시원찮
솔선수범
3040
김호중
강등
##육의
해수부
##무효
수요일
김태균
1986
귀하
진해
특목고
케이크
김종민
돌파구
화법
##줄래
레벨
##h
##㎞)
결렬
유의
신조
前
현정
##댄
단결
나랏일
커진다
가급적
낭만
무안
##구들
똥통
캘리포니아
어둡
패딩
사투리
뛴
각지
뛸
##실세
손녀
잡음
##오영
포드
##부를
송혜교
다닌다
##남북
##농성
항명
악몽
##딴
정관
##절감
##지리
협의회
학비
인심
찾아보기
엿볼
##똑바로
DMZ
02
검사장
퇴원
코엑스
대의원
물들
유선
구직
신청자
##강제
적시타
축복
##78
가솔린
이뤄져
급변
권익
정숙이
##어이없
위임
##예금
허세
경협
##꿀
##배당
##몬
묻혀
솟
이어서
FIFA
자릿수
동성애자
모토
다친
왼손
예컨대
찾아와
맏
##최저
내놔라
거쳤
##항만
작살
꼬시
##에이
사랑과
out
법학
행정관
##조가
참내
##공유
무색
##저렇
떨린다
파크
계명
##다닐
재일
치루
각인
취할
중산층
위례
자아
흑우
이식
데려다
돌릴
미혼
##발찌
선글라스
LPG
차체
그친
잔디
동전
더러워서
양이
보행자
##용기
##디지털
해양수산부
##보조
##분리
##전철
기다린다
영문
장남
깨졌
##내면
짱꼴라
주구장창
회사원
바꿔서
PGA
포스코건설
그래픽
제소
##관제
미용
##주로
물려
거쳐야
##인성
##캠
직행
기강
##으십니다
한선교
봐요
##확
##닼
##닮
##기술원
호흡기
##아카데미
엑스
햄버거
수조
##한다면서
조처
막힌다
박혀
수돗물
2021
두피
##까라
이라
등쳐먹
##소개서
비아
ㅇㅈㄹ
개명
##넘어가
##철의
우연
숭배
##어당
기호
허허허
어딘가
##구하
터트리
단서
독주
혹독
##실에
숨겨진
##한국인
##방가
최강욱
##이노베이션
핀테크
유방암
평점
조센
##촉진
##사면
개차반
##거릴
보여야
##리야
국공립
파헤치
##자네
곳간
##할망정
##옹호
얍삽
선다
심야
##86
볼턴
##계시
##리바운드
##베이
단국
번복
속여
천문학
190
##빽
한결같이
칩
##죽인
##우승
테마파크
##다지
입장권
##웍스
##마이
저질러
##힘든
##체하
내륙
##한겨레
오타
경악
아세안
사도
현대건설
소박
반증
때려라
##포항
##건너
##비즈니스
##위로
반가운
발작
과감히
PB
우버
먹칠
아세요
떠안
아우성
유격수
김부겸
##나기
##옥순
어필
돌아온다
두드리
헐뜯
문천
반입
##능이
##영국
##차린
바나나
지치
브로커
질책
와도
일화
##친화
생성
피트
짝짝
시한
외쳐
LIG
산책로
##연도
설레
##탁
이민자
신변
연고
##불편
김현수
누렸
##08
##통사
시연
한수
지구촌
비선
##논란
뜬다
김밥
##마인드
햇볕
매너
할부
도자기
지발
진다
##간다는
괴롭
엣지
쇼트트랙
선동이
일쑤
비해서
경비원
다른가
마진
교육자
##관념
인민군
학급
구석구석
적잖
##미가
데려오
##원가
재건
쐈
##지회
배임
##경력
경영학
##프랑스
##시킨다는
##지훈련
제약사
강변
벗어날
혼다
##88
늑대
신생아
##도당
편협
타지
##빙
##조리
##성명
##한도
##리본
감이
##망한다
시흥
##일제
음흉
결의안
보스턴
관해
커져
인신공격
연기력
빼돌리
피지
인텔
상점
집필
서기
꽁꽁
생소
##육상
인줄
일축
가면
방금
주진우
수박
보행
바디
긴밀
여우
##다고요
팔려
##나중
생체
##대나
그다지
온상
조종사
변함
CD
펼쳐진
혼합
##눈물
감소세
시카고
올라간
동거
죄책감
##댜
##저널
생가
단숨에
재수사
##이민
요트
사치
##벽
##석탄
##정신병자
##스목
대포
넘친다
돈의
문신
##씻
##리도
퍼붓
##통신사
##으리라
낙인
연주자
초심
떨어져서
##원단
하지
취임식
목구멍
명언
다스리
##대인
##서기
##해본다
##이자
##결
세치
단체전
얼만데
공사비
해치
도정
이수
아바타
상표
##이나마
스폰서
통학
인디
##~~~!!!
내놔
##임기
대출금
보호자
##건전
IOC
본관
##화장품
##파가
##오빠
괴뢰
##주석
낚
샤워
스케줄
슬쩍
남경필
말살
날카로운
##자구요
##바퀴
##교인
하하하
##MBC
##품목
##150
230
정숙
##만하다
##워라
파이
##전문점
공교육
물려받
##공주
단군
이양
##요가
징용
현주소
다는
##한단다
대대손손
휴가철
총파업
학자금
손질
다듬
사스
공교
##느냐고
##재끼
뽑혔
그름
##!!!!!!!!
수도권
몇일
급속히
##캐슬
##연료
중개
추궁
양현석
자행
알아듣
살인범
라이
수만
물러났
##관광공사
적대
산다고
생필품
##돔
1700
청문
기냥
국한
##타의
##연소
##문인
빈부
##설이
시녀
단죄
##올라
몸무게
주광덕
지만원
에미
조속
##모드
##역대
화내
뮤지션
약탈
부려
##됀
도루
펜스
##79
무당
##파트
##지난해
##구청
레전드
내전
아반떼
##워치
수퍼
타이
느껴졌
채웠
##셔도
기한
충실히
##석이
##쑤
법조인
부러워
인위
병들
나옵니다
클러스터
보인다고
똥고집
생겨나
##네트
지칭
한옥
일회용
CBS
적법
베이비
##흐름
청라
까발려
분간
물러서
##특이
풍선
불러야
문세
터미널
수중
노란색
가족사
##비스
초라
아주머니
사리사욕
##트럭
##낄
##폐기물
##헛소리
##더라고
##랜다
발산
보따리
##영향
승부수
별반
광산
거나
난독증
쳐묵
##구멍
##아시안
##언니
나았
우르르
노가다
윤곽
저마다
몸살
따질
##장단
##뿔
##뭔데
##반드시
입도
##수소
목줄
쭈욱
##연이
급부상
통틀
늘려야
콜라보
수없이
군부대
우월
급속
관리비
역행
##비로
##호로
##잡아가
##컴퍼니
##앴
##디의
시청료
##or
그지없
##토의
의석수
##삼진
귀환
팬티
##제국
계십니다
재산세
기장
고구려
발버둥
조직력
##사정관
물려주
훔친
시군
물러
##철회
##전통
##작용
##06
경보
##l
다이빙
최태원
##게시판
굴뚝
라이트
##e
장이
##바꿔
##접
나불나불
##경기도
호화
언덕
용접
골목길
야합
바닷물
접할
급기야
단풍
화산
부검
이세돌
싸워야
최대치
##한다더니
항로
플랜
만든다고
들어온다
##증시
##대란
리우
삽살개
늪
집무실
부담감
##족속
##그럴
맡길
되돌려
##추방
##써야
요직
##진압
세율
반경
##애국
UN
유머
##성장률
친근
불려
배짱
##실천
데이비드
장래
야채
안개
즐비
뇌종양
분비
문명
추이
##여야지
감세
##킬
##인단
악마의
부의장
##재벌
솜방망이
순회
386
독립군
##감도
시크
통한다
##죽음
외무
##서리
원했
피켓
무이자
##비상
사사건건
징역형
##생긴
청년층
군복
##주지
##버릇
##신아
신청서
직속
막힌
최상위
소변
##한단
외계인
배불리
비주류
모험
##마라톤
문화재청
중남미
소진
농약
##로울
개비
##...?
드세요
영변
국무부
아리랑
군민
반말
경각심
구하라
별장
쫓아내
##했잖아
투표율
덤비
##역과
##불량
똥파리
장터
태반
실험실
##사모
##저거
##핑장
섬기
늘린
땅콩
##W
##면은
IBK
##막말
대두
##뒀
시어머니
피땀
##MOU
승패
##조각
섞인
서비스업
개구
최저치
구한말
거슬러
분리수거
www
불법체류
손씨
##호도
in
문디
##립
겹쳐
쉰
##지른
여친
##런지
##자분
택한
혼수
##했어요
##추종
대표단
코믹
차렸
##지겹
아무데
누군가의
오거돈
무기고
##피아
경영자
골치
포르투갈
##가공
냉면
여객선
마스터
발원지
김해시
소아
##전처
##제거
사기극
헤드
전폭
##리나
암호
##슈퍼
각질
재혼
페미니스트
구워
꾸리
요기
##편한
##가을
토마토
가자
정우성
집결
패권
궁민
긴축
주총
현대그룹
폐해
속고
완주
##사업비
인도적
선발투수
전문점
방류
배워서
치료법
##문서
##<
그따위
말레이시아
##깡패
분탕질
자괴감
##은디
##운의
내비게이션
##윤석열
##발정
운임
실은
타구
휴업
##증진
남녀노소
즉석
##대형
##출산
집유
체면
징징거리
##미약
낱낱이
##그건
##가전
목욕
지체
김기춘
반대편
포상
##쳐넣
녹조
비단
우크라
성태
아찔
현행법
스타트
##공산주의
##SDI
견학
간소
포도
치러야
떨리
영천
고충
군사력
진중
수첩
땅볼
타고난
##장학금
사이코
내야
허벅지
##내일
##강변
평년
꼬붕
김상조
대응책
##동향
도전장
경로당
해답
미스터
이별
한번
ㅡㅡㅡ
낯설
호의
구질구질
이라니
펼쳐졌
사적
기웃거리
##공세
##화면
아이스
양도
합창
1985
##남성
애꿎
복사
갖춰야
파병
먹을거리
정모
미제
암것도
##문화유산
받들
##말자
다쳤
아파
맡겼
달걀
여지껏
뺏기
외형
민관
##부려라
##의도
가맹
어울려
겁박
육체
영예
##다야
동요
후련
원도
강했
시트
요번
우량
메이커
선례
##할까봐
고정간첩
달서
유권
##신지
##고가
##수장
어려운데
어때서
660
##학교의
반역자
살려야
빼돌린
쳐내
##81
질병관리본부
복제
본지
만이
##남부
##소년
꾀하
볶
누비
블랙박스
사의
냉동
처절
끓여
파헤쳐
출격
##른
##풍
##아지
##여사
##집의
102
성욕
어딘지
오름세
##한대
몸소
방어율
##오래
신세계백화점
눌렀
어떻하
국내산
농축
##세연
영재
완수
간신히
석면
##오름
기수
이룩
무지하
캔
벽화
가져올
##구가
가습기
##문가
주니어
여드름
갖은
쯔쯔
블룸버그
이긴다
##뜰
##상가
발열
조양호
##해당
##양식
##들어갔
수천억
차선
동월
닥터
스틸
장미
다큐
##데모
##저래
##테크노
포화
산업용
스파
##타당
국제기구
껍질
타다
공언
##특별법
##지나가
다가온
나쁨
우찌
구출
인허가
##라나
지구의
##..!!!
까대
올레
##누굴
나이트
##청소
##국자
상륙
##09
흘렀
##옛
화질
빈번
대머리
재심
수량
올바르
관통
다스려야
어긋나
대문
실려
엄연히
##"(
남북한
##으로선
두들겨
풍요
##드루
일진
동호회
##전복
##초기
왕자
건넸
조그만
느리
앞장
##배송
##오버
아이큐
모터
##일단
##쇠
폭주
##지옥
650
해준
치마
농지
그리워
연방제
##이렇게
인수위
피디
##할게요
##크로
나열
##새꺄
충주
##정체
##판정
##단일
##의약품
욕보이
멧돼지
파동
##겠죠
불평
막막
장구
창의력
유무
거역
##독감
묵인
##맨날
어떨
재검토
##등의
두려운
##아무개
##아리
##달리
그릴
주중
흑백
변론
미팅
실기
##자전거
존슨
남매
##체육회
##다네요
인플레이션
전장
이토록
하드웨어
서른
동남아시아
##검색
믿기
메리
휴전
톡톡
##83
##대학생
##도전
내실
득표율
MBA
---
정해져
손꼽히
입히
정동영
걸어가
난항
태클
터진다
어설픈
##편들
##홍콩
##98
길러
습성
##서장
당진
125
이룬다
##박정희
반론
##근거
##이마트
불법행위
##변동
지주
자생
아이유
연재
번갈
##벌리
태아
##비중
강압
식탁
선체
껍데기
투성이
연세
퍼다
내려온
안타까움
갱신
호의호식
텅텅
##허브
관철
싸워라
공석
악성
##걸려서
양육
생산자
##쟎아
강호
##미쳤
ㅕ
기다려야
대림산업
토목
탈환
##듀
개각
##전시회
##E
택하
박탈감
##부양
놀랄
조아
패소
일컫
자산운용
##냐고요
##특수
아군
균열
문과
정가
적나라
돌린
##실까
미모
어우러져
손톱
통폐합
.......
##일치
관리자
엉망진창
가파른
프린트
##사이버
항암
병실
##문대
했어도
해본
##줄이
이래저래
270
##까끼
##고향
##07
치중
내고
쌀값
##현안
모공
##마산
버블
##데요
양해
메일
생수
운전기사
##할껄
##배달
중재자
씨부려
맞불
##사드
##주문
##간접
돈줄
##원래
거장
##썸
니트
궤도
두부
지휘자
##금지법
분실
오물
체크카드
지켜본
1982
유익
사나
레깅스
##온라인
##거니
맨체스터
##고통
이길수
##샘
##빨아먹
다급
더운
정례
대모
##광의
과반수
군포
##복구
마신
누락
검찰청
월스트리트
##화가
가네
쓴다고
관전
MS
고마움
##삭스
고종
##바라기
쳐라
기획사
수제
짬뽕
선제골
유린
갈아엎
시립
끌어올렸
우두머리
##폐의
사촌
개기
##어떻게
어미
한명숙
is
횃불
호르몬
얼빠진
평면
##나르
##욕의
결산
가져왔
유교
##망했
##옹
웃도
찍힌
재조명
각도
##유입
두목
다중
바닷가
##죽여야
이어받
맞선
달성군
##장인
##상업
##음에도
들여다
고령자
욱일기
준결승
우편
이용이
##례
##지기
안타까워
흔하
더럽히
##도덕
##궁
붙잡혔
##이론
증원
##한방
몸싸움
##c
놓쳤
마른
필기
추태
동양인
##저것
멘토링
숙주
줄기세포
전세가
##감옥
##창고
목이
먼데
땄
암세포
##제일제당
수괴
넘어간
무급
##비와
##가파
##협동조합
이공
적절히
팔린
##옵
과속
415
##유리
투신
들려주
절정
스티커
팔꿈치
빠져서
클라
##다퉈
##약품
조구
##역겹
온전히
##닿
##전두환
##폭발
사활
베네
PK
무너질
워크아웃
가루
##지향
##V
구미시
##故
일곱
공휴일
##형태
다문화가정
##조기
##기독교
##코스프레
환매
##的
##끼친다
경감
안의
콱
여편네
이윤
전승
##까요
스타일리시
아름다움을
회상
정청래
매직
##덮
##쉰
남침
왕조
금고
법치주의
진천
##경협
할복
범법
애교
##한들
##대원
##순이
##위안부
##남이
##드셨
##진정
##회의실
##물품
아네
어느덧
민족주의
호위
##원에
##미팅
##소가
밉상
순매도
오리온스
##속보
가출
신사업
##플란트
상반
##매각
메우
모형
##진다는
합친
곡물
침착
##보존
출입국
##미리
lg
찬다
##동아
차이점
##소방서
##시킴
올라와
진원지
##사령관
경과
##출자
새만금
동경
양당
##나노
아까워
큰소리치
##챙겨
무리수
##잖은
사우디아라비아
115
##피의
불타
잠수
##괴뢰
딴따라
##팜
누워서
꼬마
어의
역학
반반
그럴까
뛰어든
손모가지
##공평
##인기
누명
##밋
거둬
모던
##대주
됩니까
아랍
전체주의
우승컵
식상
##터져
신호탄
세액
##원수
##다시피
빨래
빼내
빌어먹
센트럴
목요일
집요
구조물
어여
부산항
##유죄
일기장
특가
아껴
말의
##국립
품은
단거리
##팍
##수구
팁
예비군
문틀
애완견
가져온
보컬
뻥튀기
송환
##백의
난동
##기념관
현충일
##빠구리
열람
##들으면
개고기
단두대
##올라가
아멘
이권
따라야
##선다
감행
어마
##투사
추진력
##둬
메이
##공대
##대접
힘써
기념관
스티븐
화물차
애널리스트
김구
문화유산
떠난다
구차
##U
##럭
퇴행
배부르
##경관
녹취
속마음
대역
보탬
##.."
저서
실린
##부담금
후보지
퀴즈
##맞추
은근히
원한
노노
밀가루
넘어설
##딴소리
##으란
##동부
강기정
장중
##용사
불릴
##얼리
청바지
뜯어먹
찬물
중징계
넷마블
꽃뱀
페이
##숫자
쟈
루저
체온
전기세
부상자
##미안
애국가
##무엇
할당
토익
역전승
까다로운
##장면
##사위
불어
##운동가
이길
허무
기준치
##쓰래
선의
발이
헷갈리
##링크
##사이비
떠오른다
##청과
열라
##엄청
##법대
##증세
##마니
개점
영등포
##스틸
쓰러져
몰상식
공신
정제
숙원
##호주
##강좌
##인양
잠들
##국과
발톱
##포털
척하
피아니스트
은근
##웩
간단히
키워야
##신뢰
타국
커뮤니케이션
##다지만
풋
드러날
깽깽이
벨트
전멸
##였으며
##㏊
판명
임시회
각계
##최초
트레
##훈장
조형물
국방비
펜션
채운
밀렸
##프리
##이럴
신경전
##전북
묶여
##운행
##분위
청취
##031
흡사
삼류
움직였
배움
롯데월드
##습니
##장에
외롭
##을려면
섞여
간장
공갈
정치색
쌓았
충동
##너스
VS
1900
도의
아이파크
주휴
##들여
울주군
평화통일
원단
여행자
동굴
스킨
##가칭
품절
밝혀질
부회
수식어
##다더라
UAE
자궁
##올랐
##도발
호가
그랜저
달라붙
지하수
에세이
##필
오토
##주체
##으실
간과
##천재
세로
내셔널
삽니다
동창
필승
몸담
이루어진
##닉
##난다고
영종
트윗
재외
애인
##대판
타락
아니면
너머
사수
정기예금
저해
개새
끝냈
##자한
##호에
자살골
듀얼
체코
커밍아웃
##보일
##밟
##내려라
직인
비춰
수다
자산관리
튀어나오
바라지
은은
끌어안
슈틸리케
처사
맘대로
판도
##수위
빈다
##음모
##인승
잠자
##방과
##재판관
잔재
무신
##............
##토크
나비
챌린지
##세가
이랑
놀란
##었었
참조
국립대
##공구
받아들였
개도국
##114
에버랜드
수신
극한
##촌의
감격
와이
##당연
##해줘도
주무
경차
위스키
평준
컨벤션
안양시
뼛속
사교육비
##활
목적지
서운
##건대
##맥
##딜
자본금
시니어
##기각
##드린다
성원
표류
친숙
##날리
왕성
##복귀
미성년
제작비
##애액
1984
회의실
흐지부지
사기업
해내
쥔
설령
당직자
이만큼
세계인
제일모직
##북괴
자랐
조이
눈알
화병
싸돌
103
방증
부응
다국적
##외고
고른
##민노총
월급쟁이
##요건
##삿
##자재
입상
종신
완승
세리
##안의
유유상종
##날까
나돌
포석
둬야
외주
韓
인출
##구인
불복
행렬
##라니깐
##빠르
안상수
흉악범
맞대
바램
살림살이
##문통
접시
상도
포상금
불사
##공시
정산
대승
땜시
머무르
동반자
뽑아내
##거래일
오케이
##89
보탰
항문
직책
처했
##물론
노통
##시스
밀린
비례대표제
한화그룹
수혜자
##했을까
밴쿠버
집합
곰팡이
재연
작태
##오로
가리키
다이소
##당한다
사무국
판세
역활
잡혀가
##였으나
##그지
배부른
##연계
퇴보
대미
방수
부도덕
아름다움
정복
##사전
##할매
##벌이
저럴까
일간지
벌려
체납
신랑
이랜드
원자로
문은
물음
##반아
엔지니어
돋보인다
경합
준거
##킨
직급
##축하
들끓
습지
속담
방사성
역부족
##비밀
추상
한양
휴게소
용품
노브라
트로피
볼륨
##강당
특례
##중지
##접종
##텀
광진구
인과응보
다가온다
강단
##세습
국유
화석
##위선
4500
손색
##택
객석
건너가
절묘
걸러야
##구려
일어난다
꼬락서니
축구장
##돼도
##뒤지
BBC
엑스맨
국수
수모
##식물
양사
번영
번식
광기
자취
##이온
아비
기관장
##느라고
추기경
브렉
##표가
##다녀
알린
이분법
##가시
##채무
이중인격자
##댄스
내로
안위
복도
구혜선
하찮
확연히
삽입
끊임없
의병
##지켜
수학여행
잔여
아토피
녹지
기술자
##뮤직
좌완
히어로즈
파고들
글쓴이
처해
##고로
호로
다졌
연달
의왕
코끼리
잭
앞세우
후계자
형편없
##형사
##연휴
##뉘
사용료
연구자
##위치
금세
내려앉
##특정
##유사
괜한
우여곡절
연행
유시
##새로운
쓰인
##버스터
모릅니다
##국을
케이블카
##직접
선뜻
밑밥
맡긴
불문
##드릴
방심
상황도
헤어지
직종
발돋움
##직장
##PD
##내기
안산시
말지
정몽준
언론통제
불길
##가라
조합장
재협상
그랑프리
##클래식
즐겼
상여금
가든
리튬
출루
##특혜
##96
##지청
장애물
##짜장
##라가
##탄생
##항상
루이스
니년
##주거
##될까요
##훼손
##매입
알선
칼날
##당선
노고
겸비
구한
소홀히
딥
##이걸
주체사상
##이래서
디저트
기뻐
망가
까이
##쌈
1979
참배
초고
##수치
##엄
자연환경
##무용
알아주
280
숙성
분발
조선소
결재
##국민은행
##키즈
도로공사
##동과
경심
부들거리
구로
##테타
독립성
##新
##뭔지
한지
##릉
##???????
건국대
남양
##호남
KAIST
##초교
##뭔가
심어
##주차
##저게
빈소
뻔한데
##위협
진행자
뜸
##화장실
##가가
이바지
사탕
##내부
모의고사
물대포
##vs
로버트
트레이닝
##단독
불발
대타
줏대
##설명
장편
성취
여의
북한산
얽힌
##만주
실익
##웃겨
##위당
층간
##태평양
못지
##컨벤션
장갑
흔들림
##잡아먹
##스퀘어
일어
##가방
흘린
나온다고
몹쓸
녹차
예결
빌린
공과
무서웠
##변
알레르기
모티브
글쓰기
농수산물
절도
신물
##확산
출사표
##기강
모자란
뽑힌
봉급
쳐드
노령
##황의
##관료
충원
이기면
##제출
형벌
##리아
안간힘
점주
공학
상류
종영
틀어막
이제껏
발가락
쉰내
던질
지나간
백업
##첫
일어서
모하
세안
난이도
가닥
학벌
식이
##둬야
통행료
뮌헨
##잠
본심
질린다
##ㅆ
사령관
정적
##무서운
##보드
##중간
김두관
꾸며
세밀
##조항
수뇌부
병상
##겁
강간범
##정규
잡종
샴푸
반등
균형발전
격상
슬림
엊그제
##92
쇼크
##호수
체내
기질
##회차
쳐들
##현황
거주자
특단
계세요
##서도
독창
참고인
지휘봉
폭언
##텅
공습
사뭇
##고대
##97
##젼
폼페이
##혹시
실무자
##특보
to
미쓰
에어
이겨야
될까요
이용수
##경보
與
짭새
##KBS
메르켈
훔치
##교포
에디션
수십만
울려
유명세
##압박
##수정
기고
##大
KDB
김성근
##때기
방귀
감염병
가산
##메뉴
베풀
국제법
운전대
떨어진다는
과외
미치광이
##인조
##쇄신
백지
몰려와서
구매자
복선
##기인
##민정
서산
명인
##국방
##go
청화
IP
##이스
##적금
저격
회귀
양해각서
114
##욧
##교섭
##테스트
정조
##인먼
이눔
##테일
재대로
##남기
우즈베키스탄
간혹
살려라
버금가
궁지
망쳤
##싸우
잊혀
나기
260
어수선
해냈
전셋값
시련
개보
##정이
도산
##더구만
비명
조현아
집안일
첫해
헌정
미주
오스트리아
험한
돌연
미쳐서
월간
심경
##보훈
사무관
폭설
그래봐야
과격
노린다
##창원
실크
##볼넷
##87
##나마나
대치동
##잖어
수자원
신동빈
운반
##혼란
모닝
막무가내
복당
##벤츠
맞섰
석고대죄
빡빡
##을라
양말
성명서
##보냈
전도
때론
남다르
이재오
최우
다녀야
##극의
옮길
사명감
빙시
알라
전망대
솜씨
서강대
##첨단
원재료
미끼
입김
##단원
나참
원만
##조약
##킬로
##쏴
##OECD
실직
시간대
##독재자
파국
언젠간
##세종
패닉
완패
품종
이래라
훤히
프로세스
고층
문책
##낀데
주라
발랄
배당금
정형
김태호
장애인
볼수록
##광화문
중도금
##은커녕
고질
##ㅍ
쓰인다
위배
104
교대
속성
아이언
가파르
의아
비축
##완
귀띔
단추
젊음
어려우
##93
엑소
##련다
##회피
고쳐야
##잖니
와야
##막힌다
ㅆㄹㄱ
끼어들
##편지
##~~~^^
##망한
예술인
뷔페
미워하
커넥션
보일러
당대
##ICT
공은
오리온
격돌
마술
독과점
##아닙니다
##용어
sbs
개로
##킈
##회전
갈까
어긴
##항공사
##처형
##쩔
##의심
##아가리
전전
##유도
실거
슈즈
폈
1983
앰
##페어
##대수
연장선
##면상
수료
구비
##수준의
코리안
위증
차마
##증상
스코어
출발점
청사진
모태
몰려왔
쟤들
##코어
##美
전의
##놀음
밤낮
길바닥
##벅
방화
중상
욕한
드릴
마루
엄두
찾아다니
얍
##인용
CGV
##MB
##룡
다스
참말
메세지
얼릉
반짝
##2007
##된지
##척의
##감성
부역
피했
교단
US
##치는
##태도
간호
비틀
주저앉
블록체인
제철
소동
##뱅킹
차근차근
연승
##세탁
트리
급속도
대덕
대열
여대
##글자
함양
하기야
싸대
##설립
꽝
여러모로
진흥
##人
좌천
SKT
자작극
웃돈
데님
##객
타운
##강력
필리
출연진
잠복기
수긍
생략
증명서
현대인
왜냐하면
돈독
진위
산악
##방자
푸짐
영도
관절염
속히
급히
채로
##ㅡㅡㅡ
퍼진
회견
##세일
연도
오리지널
끝없이
무너
도려내
##발사
앞길
##캔
원년
##픽
##묘지
##고맙
##표기
내린다
##IMF
##보증금
푸르지오
하트
봄철
격하
##피스
##몰수
##홀로
견고
애용
토사구팽
트렌디
죄짓
##만장
불거졌
이마
##91
사문서
미용실
타점
상판
관공서
따라다니
##엇다
매기
##수명
경청
그린벨트
놓친
돌아간
전통문화
결별
고갈
가평
퍼트린
푼돈
매춘
오른발
##기원
산부인과
목표치
미향
상하이
샤넬
팔레스타인
증축
##집구석
그니깐
실리콘
독립투사
##한자
연산
패러디
##압
##컴퓨터
미역국
##던가요
자연재해
나르
까다롭
고국
스타디움
상기
##리더
뽐냈
##헬기
돼요
##보좌관
재취업
연연
##신데
볼보
##시진핑
드셨
쓰였
태안
참견
##기당
더군다나
거래일
역차별
##릿
날강도
WTO
친다
밥줄
초빙
##부진
##서부터
자막
상큼
텔레비전
고루
무기한
슈퍼마켓
##인줄
발바닥
넷플릭스
폭풍
젠장
##버렸으면
멸치
일품
일생
지쳐
거머쥐
##남매
이력서
순천시
사극
기다릴
양현종
빼액
국제선
제각각
진성
뻑
받아쓰
##부턴
세계일보
징벌
##망해
양궁
##남녀
쐐기
##분노
KGC
중앙당
관례
출연료
##천안
##요양
사골
징후
##억울
##먹히
채팅
극성
알려야
750
하아
김명수
노렸
유니
콘퍼런스
##뻑
노동계
##턱
가드
##러라
액정
##다르크
활보
선풍기
##보관
330
##..??
계류
맞짱
##자구
제지
패기
씨티
마르
망친다
##웨어
##만도
##온도
아쉬웠
원주민
##헬스
숨길
정차
사업주
노동력
에도
인거
개업
경전철
##이소
직선
##부나
퇴치
강효상
##㎾
분향소
부풀리
본격화
괌
스무
메르세데스
##스님
거들
##종류
##전적
환하
##지와
홍명보
이동하
##구마
이병헌
식단
IPTV
##잡지
에프
##㎢
2025
물러난
##자산운용
일류
##차려야
위함
계집
123
보령
135
안착
딱지
난국
인자
##구현
의결권
##투데이
레이
##하곤
잔잔
트러블
ㅇㅋ
##주둥이
##하인
주일
팬클럽
별일
##미니
의해서
무주택자
기울
유진
##구입
기념행사
##퇴진
가르침
정녕
어지간
싶어요
##아마
모방
직거래
##한반도
갖가지
강원랜드
##스가
##ㅌ
##평론가
방패
동사무소
당직
리뉴
자가용
시댁
육지
##예전
하노이
꼬박
테라스
훈계
##밥그릇
##자수
후대
요런
##뿐이
이효리
낮출
##으니까요
열심
##KB
##따라가
##학의
빗물
적패
##마는
역습
피폭
##우드
##a
주니
##오른
강풍
##아내
퉤퉤
벽면
靑
박아
##할께요
떠라
지뢰
##수리
합병증
세이브
총체적
담백
골드만
새우
말문
아하
벙커
임차인
연기금
청각
미묘
어버버
해산물
해발
두말
##옵션
##장년층
법규
일용직
헌혈
밑돌
양평
참치
넷째
면회
망각
봐줄
##지령
남학생
뜬구름
##통아
##선박
모의
체인
명백히
빨치산
##강도
##왕조
천안시
온다고
퀸
두각
강동구
쓸모
삼성카드
##공기업
XX
깨진
발리
SOC
외우
뱃속
##졸업
두세
만져
##~~~~~~~~
##실로
벗어났
혼선
체벌
뻥치
##생물
##산전
##대안
you
왜냐면
##통해
북방
##접촉
미디
해저
시책
변함없
##쟁
내려서
벽돌
러닝
##가이드
##베나
##공모
##뷰티
갈기
##퉁
##아치
망해서
렌터카
##선도
##어렵
목재
나이지리아
저성장
111
##채의
현기
##진상
##설마
대학가
##뮤지컬
##이혼
대대로
놓였
##사관
##경색
##블랙
아프간
건재
##유세
두고두고
약진
##소개
반출
처묵
일간
들러
스커트
강남역
건보
수련
챙겨야
유대
##안다고
신예
열세
왕국
부통령
흐뭇
##드니
##기법
##삐
##졋네
국회법
##사지
식민
##봉투
순찰
##민생
쳐박혀
##령도
##反
하이라이트
총력전
개량
교도
밸런스
##댕
무전
연준
건축가
연소
드래프트
부시장
맞먹
의향
##거다
부가세
내통
맞춰서
수염
조가
##선정
선봉
함박
극도
포르쉐
##하구
##이사장
오른손
순리
이름값
이어폰
사고력
오를
##교도소
전문직
용산구
기저귀
##쩍
열연
다뤘
##소굴
병진
##타격
때릴
병자
거랑
##주공
인천항
##전파자
서너
최경주
천연가스
땡큐
##과잉
##쌓
울음
##더리
북치
퍼팅
원상
할머님
화요일
사저
##ㆍㆍ
다가
복안
결사
NHN
의료인
달달
롯데호텔
내사
통쾌
독한
빨강
한경
##ㅗ
허덕이
##정밀
실실
습득
##학점
선대
##덩
졸업식
현충원
편중
누출
반열
친서
쏠린다
어려서
##아파
늙다리
따를
노년
싹싹
빈자리
실렸
난관
##TF
김재규
필두
##아기
나올지
반장
라오스
재능기부
##경고
유모차
##릭
분담금
지라
##다구요
##첨
##의자
강물
판박이
기탁
##느그
##[
##분배
##준이
정상급
##한답시고
##랜
예우
##붕
대인
106
주택가
아홉
갑작스러운
##죽였
##위주
물놀이
전쟁터
##전세
꼬이
초연
진보신
건조기
효도
##기와
##토리
마일리지
버섯
트롯
거북
##본당
강남좌파
달여
##불황
넋
점퍼
준용
강당
여름휴가
그러므로
##예상
##관절
아메리칸
음향
신빙
초토화
어설프
포르노
##악화
신지애
##위하
엄지
벗겨
받치
남아도
좁히
##전교조
잘라라
장부
하려
빵빵
쳐서
왼발
물씬
놀려
평택시
##중공
##낙
지주사
##인턴
순직
대나무
단언
판례
필드
개체
pc
요미우리
##예수
입각
##텐데요
말길
코인
##춘
격렬
##임원
여겼
들렸
##지자
방대
박살나
##피크
들인
코로나도
나온다는
##을꼬
잇따른
끝낸
##삭
##다매
어처구니없
여대생
심석희
##빠졌
투병
적중
실효성
서적
사대주의
##죤
면밀히
앞당겨
낙점
휴직
뒤편
소소
증발
토나
드럼
##땜시
##약국
멈췄
몰려오
클렌징
하여금
들러리
##팡
##행과
요양원
전해진다
기쁨조
법무법인
애도
수의
카르텔
쑥대밭
곡소리
기꺼이
진료비
발명
쳐죽일
##탐구
기억력
사제
뒷감당
##니가
주거지
환전
탤런트
하버드
공격력
폐교
##해준다
플레이어
엎드려
생활고
찍히
리얼돌
##~~??
오르내리
저버리
말귀
옥션
딜러
##운전자
##에라이
##쿠폰
듭니다
##쯔
##투입
배드민턴
시승
##배출
구태
정립
##탐
##드세요
플랫폼
박유천
##각하
잠자리
##인거
정석
복싱
하신
가오
판결문
적기
무법천지
107
가르쳤
##약식
##경제자유구역
아가씨
선후배
왓
누굴까
명실상부
ㅠㅜ
##글단
##게임즈
상경
##사주
곡선
맞출
##tv
풍광
영덕
첨예
##비도
##트인
텔레
##국토
재가동
에센스
당해서
##쳐묵
이종걸
##때려
말려야
인기몰이
##유산
기울여
대성
거참
가열
요지
##한테서
세워진
##통운
##들어간
##커머스
득세
##조카
##배럴
무고죄
##그루
##대리
들키
##핀
##특징
##오지
떠돌
옳다
##빠른
잔혹
격인
개천
새겨
고배
빠짐없이
김수현
뜨거웠
미스터리
합참
그랬던
##흔들
##이상실
그럴수록
인멸
##흘려
128
쓸어버리
독성
구려
##계획서
내세울
조오
##피부
최성
구애
##랙
BTS
##마지막
세분
만천하
##ㄲ야
##시한
리스
경쾌
일장기
토하
##어여
갈리
방점
노이즈
믹스
다뤄
Kbs
버르장머리
파주시
전문대
가발
피로감
##다라
은근슬쩍
피해야
의사소통
##박수
영감탱이
볼까
##달인
##불러
접경
##고법
뇌졸중
추앙
청계천
##존엄
구독자
미수
새겨진
씌워
##?!!
싸웠
마사오
##려는데
기간제
농작물
바꿔치기
내란죄
중소기업청
천명
굽히
##1500
꺼냈
모스크바
##엔지니어링
연정
코디
상급
쎈
자이언츠
커리어
전지
춘천시
##꺼져
묵직
답사
타살
미숙
데일리
109
부글부글
##근처
장만
파이터
##인터내셔널
중세
UHD
내의
##뇨
요리사
##서요
사과문
##문화예술
##바지
탐색
##페이지
발발
빤쓰
##마약
오보
물리치
##요금제
서술
개밥
##배워
묘한
##저지르
화랑
사이클
경륜
골절
##넥
오호
허점
산물
끝내기
##맞춤
뭉쳐서
업보
카악
고난
##가루
##전과
##銀
##국인
낮춘
쫙
퍼레이드
##스리
순항
띨띨
열지
관세청
210
형법
경제자유구역
##할라
휩싸였
주유
남친
##주소
추징
역병
숱한
소각장
볼일
##는다며
##나자
##로라
넘어오
달릴
라임
송전탑
그루
본다면
오뚜기
물귀신
##부스
열도
딸내미
채울
사은품
여고생
##어린이집
문득
##실태
느슨
울진
베일
시방
냉전
##강자
영진
향이
##..!!
서슴
우겨
##소원
##파운드
##큰일
##!!!!!!!!!
모함
상단
##선과
아들딸
지기
##언어
##가야지
##로워
무증상
##택지
끊기
##매니저
나이스
분사
감내
##스러우
노모
##떡볶이
드나들
헛발
특권층
수변
감투
송영길
어리버리
따낸
##불리
찰스
돌아선
지탱
다각
제천
##인데다
돌발
만장일치
요령
아파서
이회창
##잔당
##특성
습격
##원서
##즐
미생물
속상하
##몰랐
CF
펴낸
시뮬레이션
전단
찢어지
해충
##KT
살펴
##주시
산적
변모
입안
##장터
케이티
##누르
입니까
프로듀서
##솔직히
배꼽
위약금
밀어내
울부짖
당혹
##볼려고
얜
서남
##염수
비상사태
알려준다
##부여
깜깜
송치
본다는
##카카오
##편드
상응
##한다니까
##떨어진다
##대변
자자
경부고속도로
안겼
듬뿍
돋보였
공매
쓰여
##씬
쾌거
##질러
구장
포즈
무서움
지친다
조경
미르
카자흐스탄
우방국
반공
잇몸
##파리
전도사
파멸
##전도
##고속도로
오디오
혜원
굵직
물꼬
##인터뷰
##긔
한다는데
사계절
깨져
##새들
견딜
대면
##선진국
##두산
##빙신
##젤
전관예우
##갈까
##배웠
##이동
##엘라
투여
##괜찮
##상거래
##총수
분유
##배기
##살인마
논두렁
그래라
할수록
##日
초창기
이관
##다양
##그러나
재학생
##입대
##명품
##페
조계종
리베이트
내심
킬러
쪽쪽
##전술
울타리
##개학
##걸까요
공해
##학급
##N
위장전입
클리블랜드
IB
댈
##못할
킨텍스
중원
투사
신인왕
허공
어째서
쥐뿔
##지자체
1978
뻔했
쉐보레
네일
군기
##IoT
세워라
고마워요
##까봐
##할꼬
상수도
알맞
머슴
##원조
별세
비우
320
##향상
##메르스
##리서치
##발급
성도
전자파
현물
##그저
##손혜원
터전
높여야
산이
마스터스
철근
##조중동
##회생
기독
##병자
##놀리
뭍
##여의
치지
##왕국
본업
##国
경마
##이당
공법
##작년
아팠
##도우미
찍혔
능동
##블루
사다리
위암
##가입자
박찬주
할망구
##지민
1981
##괴
눈썹
핏
문법
수동
##조용히
##미만
##일전
##깨끗
##일텐데
중저가
나눠서
##충격
수목
##기조
##쩐
저탄소
양키스
게시물
##행세
野
##콩
인내
##중도
수심
들였
무임승차
##철강
기념일
대동
조건부
##법무
대내외
원한다면
세법
여객기
냅둬
넉
논할
##행태
치사율
##문화원
맛없
고노
거길
졸속
보유자
생김
반군
사범
##총괄
##기로
##긴데
육수
##지능
죽인다
강력범
트로트
심도
##쒸
반듯
##댕기
##율의
건넨
##안함
##소유
업무상
##떨어졌
비관
생사
일절
리가
가지마
점진
악한
에듀
진절머리
윈도
##꼬나
아랍에미리트
고강도
##평준
##버티
건모
##신순
##상권
자나
봉합
첨가
공대
동문서답
에릭
##연습
담그
몰이
지오
허탈
출원
틈새
일손
상고
##논의
##고소
##사업단
망가뜨리
버려진
합심
NLL
총무
미인
김연철
##환
매칭
역세권
기고만장
일터
도망갈
하버드대
출혈
리버풀
유소년
화백
##~~~!!
스토어
##XX
웅장
초안
이태리
##염의
##과학부
피칭
팬택
##갤럭시
##해짐
##저기
뭉친
어업
어버이
시달렸
##기다
동작구
냄새나
바이올린
마법
사야
##상국
쳐야
날라
성의
함성
##해다
디스
도매
청송
##구분
고금리
##수영
때려야
##먹여
##명소
동산
성급
참으
색채
##캐피탈
##리터
쉬워
비나
##합동
##갔다온
독식
##맥스
가져와
외침
뒤쪽
##저녁
권총
기념품
발끝
개떼
빠진다
호국
이해력
뒤져야
보리
살펴볼
생존자
##뮤
##파견
##체인
내복
살까
##염
##학살
창간
##상실
##계망
지애
유분
김포시
##어머니
##거래법
짠하
당위
파란색
호반
##창피
##학기제
향토
##때메
##녹
척살
##약자
##전시관
후면
승부조작
다가올
개연
보잉
##작자
##치료제
##도구
자긍심
##제안
하이에나
##일과
##유형
##이계
##짐승
부담금
##뷔
##줍니다
수용소
대갈빡
연어
일종
입자
립스틱
쌩까
눈물나
접어든
두드러졌
떨어져야
저변
판검사
##용량
제보자
성형외과
세션
버린다
코칭스태프
개당
후세
##고치
##호흡기
##난거
전임자
한패
##음악회
##명복
꿰
##터졌
수교
도망간
크리스
구자철
##겡이
##축의
빨갛
##횡단
샘플
##자며
##당해도
실리콘밸리
시발점
얻어먹
터보
잠식
이동해
##직이
##드려라
글렀
전용기
좌편
기쁜
들으며
##처리장
중금속
##뉴타운
매수세
##엑스
증권가
##부린
까발리
##계단
##오션
홍남기
요가
##일으키
##밸
유람선
##비행
##식민지
광경
##연결
인구수
##신가요
자력갱생
현대증권
##말라
##우린
멋져요
술자리
##오가
##놨는데
##다이오드
번번이
악행
어떤가
꿀꺽
외친
다승
태산
모터쇼
특보
따돌리
산모
##국판
영동
##깃
상한제
습도
눈뜨
##우익
##새낀
2200
출고가
##대책위
디즈니
한줌
지부
쇼쇼쇼
썩을
의왕시
시판
없앨
히어로
##뇌물
족치
물동량
범죄인
##냐구요
##자이
펼쳐질
비어
노키아
##쳐야
으뜸
내시경
아지매
##문학상
심포지엄
##고인
##더나
##옛날
부유
초음파
뜯어내
신병
##국악
신촌
##교익
토트넘
파트너십
##경부
##머신
크레인
뒈질
티저
##서원
##출판
타이거
##타도
개지
레시피
아날로그
##이상의
웅진
산단
왜국
##지만은
##250
##탱크
진솔
##클라스
내진
##어스
##발행
월남
##편하
예기
##유린
당도
불난
##경로
WBC
##언론사
물색
쳐다
고운
##들어라
사재
##아산
##토토
위자료
부치
비만
##d
독방
##신호
기발
저래라
딜레마
##폐하
##운송
##LH
헤매
##518
##담당자
강동
장학생
리포트
대검찰청
신조어
##개표
##승부
##차트
126
예천
작물
뿌렸
연구실
##전담
연골
##박탈
카니발
첩보
먹방
권리금
##의류
##한나라당
법리
바늘
퀄리티
절실히
알기
테이프
진열
착안
결핵
##패널
에잇
무방
무너진다
통했
정액
##벌써
##가득
MBN
##연극
정경두
힘겹
그라
협찬
가정용
지나갔
맥도날드
막연
최전방
지킨다
쪽박
공자
퍼스트
감고
망칠
일관된
메주
목회
##입맛
배낭
통할
낭독
빨랑
목돈
하계
딸랑이
##펙
인플루엔자
갠
원희룡
##게들
소방서
어지럽
쑤셔
탁구
영양제
필히
슬그머니
갖춰져
##부럽
##월세
깬
???:
막아내
##기아
선율
쩝쩝쩝
괴리
지울
맞은편
who
가려서
상회
##조원대
뱃지
전라남도
화분
##소위
씨도
##허용
돌려서
콩가루
일탈
미화
##조명
봇물
전월세
이튿날
섭섭
##파전
사춘기
##초딩
##문과
##고령
위급
##농민
쏠쏠
연락처
스토리텔링
달나라
##리얼
뚫리
##도다
철퇴
삐딱
2400
신탁
문정인
부조리
우선시
##퇴출
##수용
##습
쇄도
성기
회부
냉철
##옥의
##붕괴
##수능
서훈
##바가지
연패
113
##의대
무용지물
##평화상
페루
노숙인
사병
오래오래
공론화
영생
암시
마자
테러리스트
##날씨
최강희
항생제
여념
네오
콕
얘길
저런데
부러우
사상자
##착한
책무
경량
모셔
현저히
착륙
샐러드
강판
코팅
풍미
##펫
남해안
굳건
안일
친화
과대
사무소
미운
부인과
사회관
##노마
##꺼져라
145
폐막
OS
몸집
견줘
##택배
##ㄲ가
##블리
##다발
회개
구토
##숙이
득실득실
##서부
연신
##즉
##파이
갔다왔
선동열
훈수
맞대응
해남
##한데다
맹박
불똥
##포고
##중개사
성토
##여러
커피숍
출근길
휠
대장암
잭슨
마셔
진태
##어울리
##늘리
##짤
##미칼
넥타이
##항목
컵라면
막혔
받쳐
좌측
##퇴
##행보
제제
##계약서
##어른
상세히
사익
흉터
##마땅
반역
최고위
##사나
##빠져
##잽이
##코트
힘차
속해
아집
데려
프린터
##망친
##법조
아동학
##직도
난장판
##호르몬
소화기
배신감
감비아
획정
##레이스
##농산물
휴양
백색
래미안
목욕탕
보스
첨부
귀태
카레
패악
교량
조윤선
관리도
소관
##민원
ㆍㆍ
구민
이외수
불러일으키
살충제
동학
뭔들
##..,
써놨
맞닿
조달청
##계산
##양은
##개최
식수
##독도
내시
카라
연맹
##인분
지열
질러
재명
쓰러진
##콕
화순
경상북도
생명체
##조회
등시
관계없
한라
##날인
쏠림
재질
잘생긴
성화
공관
점잖
##~~~!
뭣이
원어민
심폐
지방대
##대지
총경
##가만히
##단기
유대인
동래
컬링
##재배
##야동
ㅓ
##어니
##불로
##핑크
씨름
마리가
로컬
##떠들
양정철
붙들
엇갈렸
아스널
##마치
##180
줍시다
##혈통
성신
희열
##내렸
지껄여
교란
핵미사일
조중
반포
가지도
##정화
수렁
##위성
강소
##똥개
전자책
금물
레이싱
sk
갤럽
##해골
군데
풀기
다쳐
##착오
##균형발전
##괴물
희비
##라꼬
고칠
차려야
안재현
극명
##어업
##헬
후원자
진척
하동
파트
경제학자
연평해전
래퍼
반대파
구타
##.............
##줍
##군청
##반납
거만
패션쇼
헐값
월등히
주워
곧장
해이
인대
악당
미셸
기무사
##성당
##중반
편승
##^^^
경남은행
테슬라
116
##방사능
##도입
멜론
여가
급상승
닳
뽑히
약관
반지
##행장
없앤
정확도
마이너
해군기지
마땅히
##체자
겜
중하
##나리
울림
##찬스
도난
거주지
##버전
##건다
상업시설
그년
초석
통풍
##해소
##찼
머리통
쓰일
항해
어울릴
로이터
##나이스
수납
여태껏
##오마이
##셰
방중
허다
미비
AS
수개
##돌려
쏟아부
유골
##만화
표로
##약속
어쨌
한다니
공생
외야수
삼각
선심성
바리스타
실명제
번거
##원리
겁난다
목격자
거북선
물증
흘러나오
##기리
##다이
놀러
##천시
험난
작살내
마크롱
자서전
부들
문수
##오프라인
니기미
'(
##구경
빠뜨리
스물
##쯧
상전
분도
작당
##히트
보트
##가네
##핵심
문인
##기후
입소
가져갔
악덕
##댁
##처에
##확률
##세이
풀어놓
하사
##개년
##인수
추행
스키장
##럴
##날뛰
개노릇
예감
그래프
하자
유재수
##공방
기종
##고식
몰릴
미래한국
조까
숲길
해태
호주머니
##바르
커브
아리
분과
##구호
대마
##감싸
##라매
선대위
##신화
한걸
본문
##악질
태어날
##외국어
##플랜
리틀
쓸데
이주
어지럽히
##뼈
우왕좌왕
역효과
만취
##코미디
이은재
문대
임상시험
##금회
##드신
투약
##TEU
##걸릴
##i
띨
##까페
ㅔ
Jtbc
색감
지멋대로
검역
아쉬울
드러
웰
만능
동북
KEB
##株
희망자
해수
깊숙이
##잡이
편도
어학
선상
##보통
주신
##기견
##도서
월성
최형우
1975
명명
능선
##습지
조목조목
##만약
방면
탄광
캥기
음란
나경
정몽구
나사
자락
단물
수평
##전방
##소형
배급제
규격
이찬원
머무
##홍준표
##예측
CES
아이스하키
저쩌
삼국
수치심
회유
##검표
##인걸
웨어
쥐어짜
어리둥절
##관리법
회자
##인회
공용
##나야
멤버십
교차로
교만
가소
신년사
정선
기권
1973
국부
변할
잉여
##이슈
얽혀
영정
뚱뚱
##非
실증
실탄
##실습
##오프
만전
##려야
모을
##튜
##으니라구
수트
넘나들
##자제
빈곤층
컨텐츠
##이내
따님
죄파
민원인
김세연
##지럴
마음가짐
보성
쑥
144
해프닝
공사장
눈여겨
로스앤젤레스
듀오
##발표회
해적
불명예
국민대
##쿨
죄목
찾기
모음
태구
##유업
전유물
##금충
액체
##가려
##분도
폄훼
##꺼라
##체조
칼슘
##교장
##~"
대꾸
550
귀중
십자가
##집중
하룻밤
사들였
마나
곤두세우
증식
소란
루트
내쫓
##제끼
김신욱
타이거즈
이부진
상쾌
중수
결여
##신한
글러
##떤
##강원
패한
권력욕
무한도전
**
필사
역력
무정부
요놈
카피
스트레칭
찾아갔
시늉
##플라자
##갈려고
대용량
내려졌
##SDS
설화
##할려는
##러닝
명상
122
수반
평판
국방력
일본식
##보스
외벽
##지르
어머님
실마리
망령
개수
우측
아스팔트
##거점
경영난
핏줄
왕실
첫발
##쪽팔리
국제통화기금
돌출
##부회장
##일수
의중
모친
구동
##탄다
##내려오
크다
##필름
담담
플래그
##등산
마피아
##장상
바친
전동
영암
##이이
꾸몄
국왕
홀대
소파
닭고기
무패
##정수기
알림
117
간염
주변인
콜라
진수
##애서
파이낸셜
##대부분
농부
고단
소탕
보듬
써준
앞장섰
##납
토너먼트
##터진다
빼어난
손연재
부지런
본보
##주세요
##영입
##됩니까
##선비
탄원서
껴안
팥
빙자
나아갈
접점
산뜻
##확정
패셔
명불허전
##FIFA
리니지
##떨어진
대리인
##해수욕장
만진
리뷰
##장벽
##명박
##선거구
따랐
남동
인조
직선제
1974
닌텐도
##러지
지동원
탄성
옆방
얻어맞
강호동
진급
날라가
부들대
##다스
피부과
슈퍼스타
따라붙
향연
##꿔
거시
고사포
국빈
호박
메이드
기내
길들이
자만
느린
찜
하남
몰아치
존엄
퉁
푸하하하
##패밀리
##챔피언십
엄격히
배척
기록관
순탄
##저장
기울였
극일
우라늄
계모
대책위
미드
관용
바랬
사려
독박
암컷
##쟤
통신비
성대
거래처
##망이
기본급
강탈
광명시
임은정
천배
번호판
암담
아랑곳
남양유업
##옳
##건도
##변명
##~^
놀아난
노총
꽁짜
강서
밀폐
##과연
불나
서태지
격화
곤혹
잔소리
추녀
시행착오
전입
아디
귀순
맹신
##어온
##중견
골밑
##주말
싸늘
내보냈
뒷배
김재동
완존
도당
체조
위쪽
##버들
##지마
영농
##든다고
합쳐서
현대산업개발
스텔스
##아네
융자
##완료
##소린지
##平
##잡종
일식
개탄
알아본다
반듯이
식감
초토
후려치
##손가락
쫒아
장의
진두지휘
민속
##갈수록
영산강
활동가
재범
타진
그레이
##충성
비누
교포
혼돈
##구이
연못
118
외칠
##착
외래
##민폐
##단절
##화성
슬기
싸운
##환율
##늘어지
##가동
저리도
이천
테니
백이
할라고
적군
공정성
괴롭힘
차주
개종자
주지사
해결사
##오페라
대작
은밀
사들인
참회
갔다오
##공연장
끄나풀
##감축
목선
신태용
앞당기
##~???
청순
##치사
되돌
민국
모교
##황제
이정희
##타입
토할
##무조건
했을까
##거린
연주회
찾아간
##필지
##기여
서장
구시대
##꽂
총대
##부상
미술품
피츠버그
광산구
##분명
자매결연
##車
석권
##뚱
##골목
여주인공
수해
걸어야
판매자
##또는
무명
##포가
오이
혼잡
경의
##부실
중거리
카테고리
대전의
사필귀정
##장려금
추리
뒷구멍
공중분해
활주로
신상품
갑갑
동떨어진
##출력
삼촌
시드니
##등부
면세
기약
##핫
##정치가
둘러
떼거지
엇갈린
뭉쳐야
보여서
아메바
어떨지
##주머니
희망퇴직
네거티브
부관참시
쓴다는
담아내
주길
##정경
##린다
재치
설거지
쌍도
등반
OST
암기
이지만
##세인
내몰
모병제
##삽
드러낸다
노원
##빼먹
자유주의
대령
!!
##😡
1976
##시킵시다
노예근성
황가
가래
##재팬
다변
##수렴
##따까리
병원장
빙상
##췬
좁혀
자아내
명장
파라
설전
줄여서
##일간
완벽히
몰려다니
젓국
##120
아메리카
##퀴가
처녀
자산가
젠더
##쭈쭈
##찐따
즈음
끼니
##제정신
##2500
이용만
결백
##말기
전면전
했잖아
##경향
사대
양육비
##조용
더디
발단
운동화
##하청
백혈병
봄날
내려갈
체형
##법과
부지런히
##골프장
센텀
샌드위치
면면
뾰족
풀려나
나아질
얄팍
##자극
전광판
억류
진즉에
길목
1930
당면
##깊
##관세
##신문사
쌍방
두환
인준
개역
영사
아플
말꼬리
터뜨린
바꾼다
기억나
발대식
잘나
##찢
출고
##삭감
##입원
노점상
##社
##어려운
##마일
놀라울
스카우트
임차
##로군
제국주의
쪼잔
한겨례
의료관광
전전긍긍
##출장
안이
도우
##려는지
높인다
숨긴
##사세요
##긴다
니혼
##급체포
##ha
동두천
어워드
타개
심할
성전환
##실현
한정판
##송이
판소리
##주유소
##란스
##청약
트렁크
##서점
슬라이더
완만
극소수
진하
비주얼
##끄레기
국화
돌머리
나약
잤
스테이크
김미화
##마나
깨갱
울트라
다크
생물학
하물며
##후보자
생산직
양양
##내수
##늬
신봉
르네상스
##펀
##지간
##살려
소리야
세입
124
모가
강의실
##털리
강수량
민의
고귀
북풍
급선무
모욕죄
다니엘
발포
이철희
도맡
대물림
콤플렉스
잘라야
산타
오롯
살균
##모였
고군분투
##확장
갈취
##취재
방호복
금값
퍼준
시리
무주택
순례
##솔루션
##모아서
할애
부속
추징금
##자회
꼭대기
사업체
##명예
##역적
매운
코스로
##구미
뭉클
##흐리
노원구
남양주시
##뤼
##돌아다니
##특허
눈부신
항공권
##라뇨
체험학습
광양시
카다피
마틴
광대
이니
학회
##외부
매달려
달리기
투표소
##기피
백지화
##파도
갉아먹
가히
항공편
##도어
김한길
오랑캐
동족
##보수가
쿡
배부
민간단체
아울렛
고위험
##다녔
육류
값싼
##잡것
엄하
##꺼지
GE
##분할
엄연
궂
선교
변종
아프가니스탄
##실질
어머
부흥
##기장
양준일
##캐피털
부두
##"...
##위크
연설문
약도
항체
양분
의성
음란물
갖출
서한
비철
풀렸
쉐리
##불교
##발리
##다녀라
혼나
##노라
두드러지
##뉴욕
본사가
기정사실
단면
이통
지질
이근호
##덤
매사
열중
영등포구
거물
안성맞춤
##당함
돌봐
yg
##2006
갈겨
##백수
##사무실
사칭
본때
기로
##거림
##낸다고
##용인
주식회사
이롭
뚝심
##욜
뜬금없
##파인
초고층
풀린
종신형
##마사오
##컴
세인트
장로
##보낼
##히들
알리바바
강민호
재정부
##부릴
피터
묘지
가정폭력
##워크
산림청
수십조
방조
블로킹
아유
놔둬라
##멍청이
팜
보여줘
##국면
뒷조사
이끌어냈
##으려다
##유학생
선거인단
##|
민초
##인형
약이
##당연히
징크스
기왕
차리세
골통
소비량
##드려
출입문
액티브
오갔
조약
처자식
감출
조옷
야후
생태계
예체능
나리
갈기갈기
견뎌
버핏
건당
##적당히
전학
##올렸
##꺼야
##.........................
단통
##워킹
##실내
지름
##겡
##대해서
##적성
##패턴
식용
공모주
##安
##띵
##제철소
##산당
퍼즐
초범
##잖냐
##가든
봉지
유한
식습관
양형
헤드라인
원리금
??
##차림
출입구
##등록금
도살
진가
콘돔
무자비
배양
고흥
##기념회
재촉
##볼래
##행정부
엮이
샹
##부위
##미쳐
생겨났
성비
##흐
##차린다
##신라
몹시
##만진
히딩크
투자처
청호
블라인드
싱싱
##수칙
##전투
제국
패망
현관
뇌물죄
##세제
때우
미녀
여행가
##영토
통지
기저
##플레이오프
##맵
명작
##제시
합의금
##수력
##北
우환
뼈저리
##러블
눈꼽
킥
##기록부
##났으면
수락
##만한
장단
##국수
학교장
##%.
##태세
끼얹
##됐었
소극장
비장
영공
불고기
##뚜
묵살
꾸민
##합창단
촬영장
##하이
폐사
발맞춰
애틋
중용
광물
친중파
행패
이수진
##다잖아
##수사대
中企
##드레스
##질수록
##는다는데
##지도부
낙엽
##입법
청나라
뜻밖
특구
압구정
방불
부적합
겸직
물거품
##사니
##내린
##열의
김영철
론스타
지녔
유산균
##모이
##동무
##정은이
퓨전
떨어져도
뒷북치
식중독
역도
##멋
##사기꾼
부딪히
KLPGA
거저
광진
승선
연하
적격
##첩
돌변
하긴
대림
마주치
세븐
톱스타
휴양지
##인플루엔자
남길
필연
일등
독단
청결
노숙자
미학
영창
후쿠시
##츄
동네북
불순
##연출
노사정
명물
기장군
갈비
##심한
쭉쭉
깨져서
거머리
유화
신고자
동유럽
중추
자격지심
살아날
횟집
오락
정취
자구
##굴리
사이드
문화부
퀄컴
하단
##순방
기회주의
빚어지
승복
부의
##우유
잡힐
아픕니다
사체
붙어먹
개헌안
##본다고
##핏
##감은
행정력
어쨋든
##창작
비워
##비난
##방송국
넘나드
승기
자금난
##할아버지
근력
제작자
로그인
울분
아쿠아
값진
모여들
PO
저질러도
##충전
성동
##사립
##신상
##처묵
여론전
영양소
전한
미대
여타
화났
##믹
삼척
##세용
현빈
127
##골퍼
갔다온
자라나
나아졌
##블릿
no
##논술
애리조
찝찝
싸워서
##법률
##권익
##이기주의
##강연
헛웃음
산채
자각
독하
##아하
##개이
비수기
전경
경복궁
도망갔
##사료
조동아리
##빨개
태백
##동영상
팝콘
스케일
웜
##주의보
여운
매장이
넘보
하튼
헌법재판
##인한
히말라야
##퀴야
##온나
머리채
일까
당파
##드려야
모아야
##어리
빈도
만희
##발악
기인
##선가
##인다
느껴질
결연
헌납
민노당
연립
휴먼
전시장
지역인
개인택시
잘잘못
착착
파내
새빨간
##사옥
##풀이
딸랑
어휘
개소식
출두
본전
원폭
떠벌리
##전혀
정이
간결
##행인
언더
##아나
##치도
해악
아꼈
입마개
바빴
공상
##힐링
충신
##감면
심부름
면서도
케냐
증후군
공보
00
흡연자
걸치
차린
##2020
가덕
##쓴다고
##세율
험지
이래야
사립대
한의사
스릴러
##바래
콜롬비아
유사시
치민
최고점
##방침
연구비
양복
##불감증
폭리
다스려
쑤시
##래나
임창용
초조
원두
##에프
찌꺼기
##로로
서원
우리투자증권
##터치
희석
럼프
굴러
##朴
##존중
별수
갱이
몸짓
##컬
주점
##똘마니
마구잡이
운수
게이츠
그새
##도박
##감방
##논다
##눈깔
##학술
핸들
##오히려
미러
##계약직
##추경
##볼일
외로움
혈당
dog
조개
살펴봤
##표정
삐라
데가
살균제
파울
주효
##가까이
##군아
##세워
물러날
##착취
양적
##절벽
##떵
##국어
가상현실
보냅시다
##!~
##품안
165
들여오
##잡히
실생활
알짜
시끄러운
##아재
~~~~~
힘겨운
##~~.
거침없이
매연
##도약
##달비
널려
##추미애
대패
안마
군중
##교원
동국제강
옷차림
##달째
들려준다
직진
근래
불빛
총칼
되돌아보
##존경
고삐
##철거
켜졌
대들
장사치
인사말
##으신가
##자국
##보험금
그림책
이영훈
자빠지
베이
망함
세아
개최지
총체
손놓
##깝
##들어도
##일인
##LED
제주항공
##아닐까
사우나
성패
조직원
감량
##플로
##로직스
KBL
본다고
틈틈이
요즈음
낸드
갑작스럽
비료
##어쩔
생업
묘역
##해져서
멈출
##탐방
사채
햄
확실시
132
관영
##똑같이
##폴리
기절
배고프
내말이
##한걸
자동화
불태우
##저의
병장
##이겨
##보여서
##깎
##..???
DB
오름
후방
소국
##신부
평온
서식지
##탈리
돌이켜
##된다며
포교
소양
수건
구인
##빨간
이겨낼
1945
##하진
##라니요
청소기
##을께
##무한도전
내려올
실토
##온다고
유성
IBM
##아프리카
물체
불경기
넓혔
파열
아갈머리
침공
국제축구연맹
끼친
##전단
프로필
##꺼내
##당당
구강
##내려가
굽신거리
시흥시
##고개
##????????
탈레반
##시야
1977
노랑
##학부모
퍼거슨
##시경
##소생
도도
外
##나와도
삽시다
왈왈
철광석
2300
가려내
키운다
냉각
신음
실망감
##정확
명당
수리비
후쿠오카
복리
따져야
##FA
참지
현미
쉼
이정미
차액
꼬리표
물든
역겨움
행정자치부
펄펄
##조아
입항
껑충
참혹
여생
##플랫
##체력
##조상
##린지
캐시
귀추
잡소리
거침없
##실리콘
입법부
콜레스테롤
##동해
##생겨서
##음식점
존심
척척
##어제
생떼
##심도
##안감
참된
효소
##탭
##.!!!
낙제
##랍
몸부림
자부
연장전
몰려가
##㎞,
원자
거리의
격노
지낼
휴전선
떨어짐
유리창
##다니깐
밑거름
좌초
입담
신라면
##귀족
부유층
##득의
##넥스
발코니
##석아
성황리
##----
영유권
찌든
뒷면
싱크탱크
##앤드
기색
마칠
##겐
##아일랜드
지성인
##발기
1972
##수법
##한데도
보인다는
화난
소형차
빼앗기
철강업
멋져
라이언
야수
정신력
##죽여도
미개인
##해냈
지폐
##재해
날릴
절세
훤
##아닌지
한탄
남극
##親
?????
동호인
달라도
튀겨
행방
상황실
휴대용
잠적
폭침
##추구
##출
##수고
HD
미네랄
##아그라
한라산
청담동
##소린
##외곽
##애플
회고
꾸지
관사
##분대
##후반
##비행기
##뒤집
의총
공소
##맘대로
찬바람
##용언
구도심
만두
정할
##자영업
책자
일침
고추장
##따윈
조연
지병
원순
##기존
##진지
서영교
수협
##돌봄
##ㅠㅜ
치뤄야
##자유당
##그런가
##총의
군함
바그
##녹색
##고등
미약
학군
묵념
평론가
결탁
##둔다
체불
팔다리
도시바
선회
##모터쇼
애시당초
##모터스
##겁나
베토벤
원시
자해
##백신
경직
##지명
까부
바빠
##그래요
방문자
문전
풀타임
이완구
근무자
##잔재
불응
뉘우치
##박원순
##인류
위아래
피난
신진
##엑
흥국생명
생화학
족발
새내기
탐지
PF
청주시
임팩트
##전달
해리스
##찮은
##스카이
##직구
##학번
양천구
번개
##컬러
톰
대학원생
골머리
##돌파
외교통상부
로즈
##예보
##연비
창사
원성
퍼뜨린
뗄
계엄
아버님
노폐물
매개
뉘앙스
홍성흔
##석방
갇힌
##내주
일리
121
장내
##시켜도
##차지
##외환
반항
종용
헤딩
전화기
너흰
주치의
무술
##지근
철원
ㅄ
##잡힌
정두언
133
교통비
우상호
유방
음료수
##트임
코스트코
갈래
공예
중임
남아프리카
자력
소나타
화형
정현
##프리미엄
##베틀
주선
빼앗긴
밀어부치
잇따랐
특산물
고점
##자다
나간다는
핍박
이승기
소방차
피임
##보궐
빻
비무장
토니
질적
대낮
##합격
마카오
송가
얕
##위생
개인별
##까리
##스타트
물길
##는데다
프리킥
빨리빨리
##안과
타파
바라볼
;;;
장재원
채동욱
들어내
재팬
비화
##씌우
유흥
##수주
관악
반품
##산다고
전단지
분의
##징수
##제인
우루과이
퇴학
##웃긴다
##상과
앞쪽
경미
익산
독제
금메달리스트
다정
##냐며
끈끈
한이
문지
울화통
이사단
다산
김정남
##중립
단번에
##하나님
하이트진로
자청
배트
티베트
맵
##지교
과천시
##가상
움직여
##한강
숭고
##경대
##될까봐
명쾌
##체포
안과
##당해야
##게이
앞선다
서귀포시
별의별
##래는
##을려는
소비재
수영복
##억대
빵집
##망덕
아연
장타
열띤
장마철
무드
단디
망정
##다인
열불
식별
##어용
내미
호출
블랙홀
##애인
멈춘
##포트
성서
##편향
한들
도망치
폭포
상부
다를까
중공군
##극복
울컥
꺼꾸
##축소
뒤엎
개강
합작품
털릴
식료품
##외과
빠져들
혼내
뚝배기
🐶
둘레길
회색
총알받이
##스마트폰
희박
여기자
시애틀
고위층
생명력
##클러스터
김재원
더운데
##마왕
##됌
개풀
혈맹
##어법
##기다리
아닌감
##가비
##지에
풀리지
##구서
쫓겨나
손수
##루가
##이행
처박
누수
쓰러졌
화천
쿠웨이트
개털
##담사
섬뜩
남대문
구절
##돌림
눈매
반년
##지휘
풀릴
##비핵화
화염병
##이재명
따라갈
노약자
##HD
교토
이럴수록
총학생회
원론
행진곡
독이
한입
##침략
##소스
블록버스터
침실
테크
##국기
속일
지으면
진흙탕
수컷
구급차
수탈
월가
피해망상
페인트
정오
##Q
그려진
##탔
##지구의
##거린다
##찬의
해운업
수개월
##재수없
흩어져
그물
지지가
행하
정파
일병
##디지
대형주
창녕
비빔밥
첫선
챔프
냉방
엽기
##관람
준공식
완제품
##건데요
다른지
일몰
전매
벼르
도운
금산
본분
##옵니다
고영태
##교시
##분담
피해액
##굶
달린다
논조
애견
쓸쓸
저울질
##제외
벌어진다
번쩍
BNK
청중
##융
교통망
끼칠
황우여
버텼
게거품
##춘장
살래
염장
결사반대
백원우
##회도
나머진
쓸개
시그
##주당
##부활
내치
회의록
##파정
##공예
##연애
포크
##직무
그만둬라
통신망
##국정원
울렸
뒤흔들
파인
##췌
##삭제
##이해찬
불린
식자재
for
내려간
뚫렸
##특화
##안내
##공짜
강연료
갈고
##러스
흔들릴
##딱지
급물살
문양
공구
지은이
탄다
태연
착오
##우기
##몫
소신껏
1965
##미개
골프채
언년
##방탄소년단
져라
쫓기
스코틀랜드
교섭단체
기선
##망언
스모그
##문정
옥중
##훈
##바둑
대표자
논산
밀수
고아
車
##형편
갈아입
##유튜브
일동
김여사
##씨도
안철
##신발
돌이킬
물자
##트롯
역외
고요
정봉주
##구걸
kf
자알
경쟁률
돔
일수
남여
세븐일레븐
##극단
기울여야
청아
멜로디
어뢰
일거리
##분경
##조폭
절개
##KIA
돌고래
승부처
준설
##하여간
찬란
이주민
or
싹수
가진다
##시비
##이니
##없는
창업주
국내선
##숩
돌대
##단도
##으리
꼭지
이범호
배운다
마오
##지는
막말이
##구제
분수령
올리브
계셨
지도층
개포
이용료
##밝혀
들이밀
##담당관
##원아
##모금
개짓거리
##센서
##신세
##해피
칼로리
정운찬
바를
벌기
##윤미향
흔들렸
##다행
덕목
##경영인
##잣
##코노
난립
총격
현대사
욕실
##높이
부산은행
##체가
##고조
##속국
집어치우
남중국해
##이치
##졸라
영결식
추모식
치워야
댔
미일
보톡스
단지로
캭
읊
##동구
##립식
끓이
움직인다
갈아치우
박지
##할려
시름
앞가림
눈덩이
흥미진진
바캉스
부츠
손들
신중히
김남국
주공
##된장
말미
관중석
서포터
##일기
##난민
##아아
공문서
테마주
캡슐
갯
오지랍
문란
SPC
가했
유니크
속죄
##틈
##종족
깝치
##가드
자유도
하남시
평안
##스트레스
마음속
매끈
현행범
화훼
##친환경
##맡
GP
김구라
김진표
부가
진즉
무서울
트래픽
##습의
##변호
깨문
인공위성
판촉
늑장
##스페인
갈지
먹힐
난색
따라오
한샘
CIA
무궁화
##기라
봉화
아레나
불태워
##려거든
봐주지
천연기념물
간암
최태민
신호등
납작
양치기
남일
종속
상한가
복면
##보험의
힘듭니다
##코너
공실
##부끄러운
발라드
오라
##지니
밑그림
##㎝,
노년층
질리
배상금
불붙
나왓
레기
미덕
인당
##성인
##코인
##퉷
정정당당
탁현민
##자위
안장
끌어올릴
배알
##미스트
추워
##병동
빌보드
##세로
##테마파크
달라요
조아리
이노
나이키
기틀
##걸이
우길
##거덩
관두
##성전
외야
##최강
알긴
머금
발표회
한단다
스토커
##타이
SC
제인
합창단
##안심
중앙선
##자립
궁합
제물
엄살
##아트홀
고교생
전주시
면도
##The
번이
진에어
##지질
##흠
##라잖아
빠져나갔
협연
임태훈
##물리
흐른
차츰
##알아듣
##계열사
족보
적립금
시종일관
속수무책
천한
어데
##폴리스
유수
##까스
수혈
##포로
##퀸
떠도
완도
##담회
국교
염전
끊겼
시차
악착같이
마흔
파리바
##오리
풀어내
팀원
벌렸
성동구
올림
혹세무민
귤
설렘
##예비
설악산
지역주의
삼키
방황
##의료진
궁굼
2100
구지
패륜
불분명
##보건소
도용
개자
목걸이
##스나
에티오피아
##주류
##미투
##동반
DGB
보루
남과
##군민
왈가왈부
초당
##~~!!!!
##구축
독해
##해했
포근
이재민
두르
##영재
폐원
##계급
##강판
심리학
핸드
##쫄
대잔치
##환승
태운
##법규
고안
연출가
산사태
##혜가
건너편
##연동
따박따박
빠듯
##갑자기
애당초
교권
예리
장신
지휘관
방제
무심
여덟
어려워졌
줄게
공황
대리운전
바쁜데
##반복
아담
소급
1971
늘린다
인내심
뜻깊
##성별
##모른다
쿠션
##농사
초저
도통
##워터
##쪄
노재
##비즈
전동차
재갈
##렌즈
아싸
비거리
사들여
코카
구르
지어
고모
##이체
소수자
도적
동종
##폭락
달랑
구설수
고품질
##특례
건방진
현존
##무가
##물타기
일회성
##다오
줏
GTX
튀기
마취
비닐하우스
입힌
깜놀
비수
##됐으니
애완
CT
덫
##자격증
##피자
지부장
##바야
문두
조선대
핸드볼
피똥
시험대
야경
##예정자
부엌
살펴본다
국민연금
쓴맛
##외대
가로등
조삼모사
흐른다
지양
개패
##광역
##도로공사
하등
##!!!!!!!!!!
##법정
김지은
##기타
故
꼴불견
맞춰야
받아들여야
한국일보
##리기
거스르
##김경수
##고속도
내려진
궤멸
##캐나다
##파와
........
##환원
교통안전
선수촌
##간대
특조
성장기
##활동비
쿠페
GR
어묵
겸임
회기
메탈
내려와야
장어
범하
##표도
5500
이뤄낸
쫑
##갰
작업실
가까스로
고독
펴냈
##총액
지탄
찌그러
이세상
죄악
봉사자
초밥
가당
차후
내한
수없
시제품
날씬
##近
냉장
따른다
##알려
포주
##바겐
서병수
스트리트
섣불리
뗐
##실시
##키나
##조선소
집집
인민공화국
따스
##찌질
의거
꺾이
팽배
KS
병균
달력
폐수
##참석
항변
##열받
특종
강점기
전환점
##불만
강팀
튀어나온
1968
송이
재판장
##현금
최희섭
차출
##혈관
한바탕
하얗
유트
매트
콩쿠르
##봉이
##존나
때려치
만만세
입혀
활로
##정세
복숭아
결장
컨퍼런스
##뒷
셔틀버스
기형
후인
떵떵거리
##다면서요
##테이
##골드
##일선
밝혀져
달아났
촘촘
!!!!!!
##위대
익성
불러라
갬
##싸지르
##베리
강추
역세
비트
##재미
수서
저긴
히로시마
몰랐다
석학
빗대
##마구
도로는
쫄깃
환한
남동생
어우러지
마누
##수습
##교정
체격
##틀리
##결산
##이벤트
비키니
가져라
던진다
후자
양산시
아가야
김지영
##연수원
##져요
##대역
이춘재
정류장
##스튜디오
추출물
다룬다
번지르르
손익
핫바지
반세기
복부
아슬아슬
라운지
승산
##하여튼
스트라이크
돌진
##전가
♥
열혈
영남일보
태권
##~~~~~~~~~
등락
모일
패전
내부자
국위
뚝딱
뒤진다
블루투스
준다면
##㎿
##수집
도둑년
증빙
갈수
감산
##송금
##신이
##순의
가업
뮈
산골
SSM
낙폭
작사
단일팀
##자국민
파이널
##리알
웃겨서
##개정안
JP
판매점
134
출몰
부랴부랴
##섰
퀴어
##믈
재물
멱살
##멤버
방글라데시
은행장
콤비
방사
시킨다
무턱대
1948
자연히
137
##OS
바꼈
##원사
굴러가
왕의
당과
행실
특약
##참으로
부평구
되살리
##각서
엄중히
홍익표
##김대중
덮어씌우
##한겨
##조지
레몬
##혼의
부영
155
##화물
##아선
##렙
확성기
알콜
병풍
##백억
유적지
오열
##갈비
##아함
삥땅
##제어
등대
신항
##욕먹
##의뢰
카페인
탁상행정
나날이
갑작스런
##조만간
박주민
용인시
##납부
끌어내려
밝혀서
로열티
쥐약
##파이터
복종
플래시
곰탕
##젖
스텝
129
##플라이
136
약발
되돌리
페어
대한축구협회
가할
어울림
즐긴다
밀입국
닷새
분자
##기본법
##상작
사회봉사
##폭도
내뿜
##축내
##드렸
##록의
##감히
##다닌
##부려
가져갈
이뻐
문창
프라임
이맘때
##나대
실신
##몰라도
독립영화
대도
남동구
승화
흡입
알아볼
직계
미래형
##태풍
##조사단
##뽄
##지역인
##자석
##아닙니까
##환수
##통이
##부류
말썽
역전패
장세
##센스
짬
미뤘
홍역
##지속
##발이
##㎖
개월
빚더미
일벌백계
나체
보정
숨겼
키워라
경재
올려놓
##온천
돌아다녔
풀려
뒤덮
지어야
꾸역꾸역
##山
여진
##서명
##동자
네이처
##버튼
변비
##석상
환경영향평가
##연습장
낙찰가
##오토
##연방제
##물정
후장
쥐꼬리
소유주
신박
천안문
니퍼트
##청문
재량
시크릿
척도
떠올렸
굽신굽신
##기일
##나누
테두리
했는데도
##미필
파출소
내성
##추정
스포츠카
깔린
처박혀
##해안
뉴스거리
##전파
갈렸
##..............
거슬리
신격화
빠져라
역지사지
최고봉
##아예
할걸
##증이
내자
##떨거지
가위
이미선
둬라
만류
##패딩
건방지
사각
김상곤
##죄다
콩나물
쇠퇴
루이
옥죄
건드려
김상현
##사라
공금
aid
프리랜서
뒷짐
##가져가
멜
준하
##2005
스킬
야산
잔금
무릅쓰
모면
##교민
느긋
훈련장
전남편
변한다
이정표
##횡령
장바구니
##여중
최고령
##한데요
소사
홍길동
##보고회
월등
존속
웨이브
획일
성난
정교수
##비슷
제품군
대장정
경성
물어봐
##ㆍ미
##선사
홍성
쩔쩔매
졸렬
##육아
하체
이민호
에이전트
##사이즈
대파
도축
##점차
달아나
동동
올려도
##㎥
내민
175
붙일
##메트로
구금
동승자
##커뮤니케이션
떨치
디젤차
뼈대
xxx
비켜
헛짓
##도스
##오브
이상민
서대문구
##내자
유행어
기본소득
고온
늘려서
악어
삼성전기
##혀라
쟁취
##햄
단수
변환
##㎞/
148
##매가
불식
##진작
장흥
##는걸
축산물
판가름
일깨워
바리
부릴
지킵시다
올레드
건드렸
버팀목
##준다면
캡
##익대
##.^^
138
꺼려
##치유
만사
소린
oid
솎
대표작
테크노
쓰지도
##야된다
붙여서
프락치
기독교인
##필터
##빠빠
##파고
##기관장
어부지리
셀카
내추럴
##미도
과분
##보트
지팡이
##므
##으네
고시원
홍천
계약자
##체장
그리움
가마
질렀
외무성
하류
##어르신
봉이
근친
양손
##콤
뇌경색
##믄서
식욕
충만
장성택
전투력
호박씨
낄낄
참관
서장훈
##급인
친해
무인도
갈라놓
##SUV
레바논
##이탈리아
##%·
박성현
##ETF
##졌으니
발전기
컨설턴트
##사거리
##넘기
류중일
DHC
파스타
스테인리스
견인차
##세난
##자동
##대당
유통망
더워
##만점
말라고
시사회
힘찬
썰매
멘붕
남파
##기심
道
중후
##리스크
내려와서
남아돌
##겪
##비어
서지
습기
##구동
놀음
##써요
누진제
무지개
각료
조만
존스
내줄
커리큘럼
삽시
내쉬
밀도
상영관
부렸
1969
주정차
식약청
##티켓
애니
##곁
##더군
애썼
자인
거동
##말리
##짜르
~!
마이스터
샅샅이
##개뿔
짤라야
죄수
##에라
##리거
##관객
중간고사
민영
면전
##톨
외지
독설
팔린다
블라우스
선택과
난다고
자성
플라워
메디
조급
##포식
토요
##스타디움
##임영웅
##비정규직
폭삭
##시킨다고
만만찮
데스크
기공식
비석
보신탕
##저항
부풀
분권
##연상
##석도
##커플
맥스
샤프
한단
빛났
##선양
##출국
##마을금고
부적격
상책
맛나
***
##업인
뱅크
##웁
##발레단
조준
파시즘
정보력
대한체육회
묘하
무작위
깨달음
휴무
##삭발
논란거리
##팽
의의
ㅍ
버럭
동명
싸이월드
까자
심근
오산시
태양열
##피우
매트리스
바깥쪽
평형
둔다
비염
장가
불어나
##기력
마곡
안일한
작심
차갑
통통
정진석
##련지
외로운
허언
##본이
괴롭혀
내리막길
##냐면
소리지르
넘버
##지연
사무직
##한디
##제로
희토류
가신
설교
다우
휴게
향방
##횟수
극심
허정무
##돈다
가로세로
꾸렸
##거주
##터짐
모인다
유라
##벌금
##이딴
라이온즈
and
ㄸ
##천사
펄
##였으니
하마
특임
절규
지나갈
모바일게임
##종료
윗분
꾸짖
굳건히
##현대차
말단
하부
포획
##따리
프란치스코
상조
서북
##매우
영화배우
역주행
일색
지편
기록물
##방지법
망가진
이중인격
끼쳤
팬덤
##%?
명과
저래서
내손
양악
갈증
##기획사
##경연
##불문
근디
##라메
무방비
원할
사회단체
배지
엄선
##과자
##망해라
빵점
낙서
##탈취
두터운
굴비
##플리
오판
##브라질
2700
내보
여고
이건가
독소
약품
국사
줘패
김병준
변절자
번은
##일요일
회고록
340
괴롭혔
ATM
##기세
##?..
경진
탕진
터져서
코딩
연습생
504
##인겨
##유족
##바쁘
양면
경상남도
##해경
벡스코
카트
은닉
##협조
##정류장
골대
노련
##색깔
터뜨려
##어시스트
##메이드
##재고
진주시
수배
##들어갈
약주
mb
##성태
##올려서
2600
단맛
대자보
포항시
##승률
이럴까
컷오프
##할배
간병인
##생겨
끈질기
얼핏
숙식
##서야
##파식
꼭꼭
자충수
부셔
##진학
가로수
##기친
##측정
##브리
차태현
칠푼이
축출
들여서
142
##모여
비약
##볼라고
옘병
##복수
가래침
펜싱
바칠
배때지
##웰
##전라
울상
광고비
자태
내딛
##투스
출항
##돼왔
##신기
##;;;;;
펼쳐져
권했
##사안
잊어버리
부러지
ABC
##구와
윌리엄스
해직
에어부산
라스베이거스
도리어
유언
##딧
##초반
괘
스톤
우익수
##곤란
공급량
##부지사
##치웠
노릴
색소
##금고
탄로
밤샘
사셨
##성남
갈림길
에볼라
##인터
김주성
이곳저곳
가다듬
배역
##늙은이
옆구리
효린
넘사벽
페달
이승훈
죽지
##곱
잖아
허나
왓슨
바빠서
모자르
용사
##급자
세터
##350
시식
##사양
가벼워
##高
진자
IPO
아이오
차곡차곡
무용수
마린
유실
##LPGA
##게라도
##진입
##걸요
휴스턴
벗기
무더운
김경문
요르단
명곡
가점
영위
##심정
디플레이션
푸르
##갈지
갈랐
소용이
재규어
여초
유관순
찟
팔찌
숙지
천식
누리집
겨루
##표로
겨누
아아
##국민카드
편차
1920
따먹
그린다
녹여
##발굴
여상규
##ㄴ들
GPS
또렷
슬럼프
점쳐
스위치
##군단
등산객
##보유국
퇴직자
앞이
무안타
기치
준엄
통닭
시끄러워
넘어간다
포문
김칫국
##포티
손아섭
##막혀
##혐이다
벌어들인
##비엔날레
경색
141
특채
다분
쪽지
구가
항공모함
USB
##플래시
자활
하프
중학
뛴다
밀려나
143
해리
##극본
찬밥
##PM
##카운트
##닥터
김관진
후드
##리에
리먼
세종문화회관
##변하
##머저리
맛의
아구창
##통증
송강호
어불성설
배설
##모녀
평했
양주시
❤
##여가
##개당
행성
보위
자급
##기통
##수립
##가왕
##충청
선발전
장동건
십상
스킨케어
##브로드밴드
보온성
##우스
##똑똑
천만다행
전성시대
문예
산속
실추
##어서라도
##계획안
##화전
추카
sid
두기
테라
##헌금
##상생
은평구
##흑자
안다는
구수
경지
봉하
개진
탄식
국무총리실
자당
시베리아
핵보유국
빠를
##잎
가평군
##재무
주스
가창력
퇴색
팝업
줄까
토박이
깼
속하
포탄
##꼴리
니켈
소리치
##로세
감청
정글
##영감
1962
텀블러
디트로이트
##넘치
DTI
##공조
꾀
쌀쌀
범주
여포
급성
주의보
KF
보아하니
손잡이
檢
고자
##우대
자석
고상
ㅍㅎㅎㅎ
알제리
측도
영월
##버립시다
##금이
져야지
문달
갱수
앉힌
##개그
새터민
##살의
경치
니즈
후지
##테마
교보생명
큰손
볼펜
팽창
산길
정해졌
눈여겨볼
핵탄두
징조
근속
관저
##文
##점포
##맞음
글귀
날아갔
##재원
##시킬려고
불바다
##리치
꺽
가르칠
##줄라고
##재활
##자유주의
공분
날벼락
명재권
##치워라
행정소송
상류층
황재균
가령
시정잡배
박연차
전업주부
##물자
아스
##칭찬
153
부적
기부자
교화
찍혀
구로구
서예
##샹
도토리
##씽
##추행
##통치
팔촌
개싸움
취해야
##놨으니
여겨졌
주호영
웃겼
웅동
##소문
속편
##UAE
전업
##으련만
죽일려고
레퍼토리
성완종
변이
윗대
어린놈
OCI
능력자
##헬로
서귀포
등단
한가위
##방송사
##형성
탄산
담지
충칭
교두보
##차인
##해야함
손꼽
##약정
시황
##나와라
##버릴라
152
##김해
##헌의
허위사실유포
##아파서
무서운가
전속
중견수
달아오르
치자
##창구
밝힌다
선교사
갈라지
납세
긴박
렌탈
갈망
나트륨
체포영장
펌프
동갑내기
난린데
들썩이
경정
고뇌
고속도
##무개
태형
##부네
당락
##개야
##라냐
##휴업
고약
전차
철학자
이변
##세액
반짝이
신명
연료전지
스트리밍
파우더
엮여
나로호
##출발
워크
교향곡
예고편
주기도
선입견
윌리엄
it
##계정
왕래
포커스
##평소
##대충
##소용
집중호우
환경미화원
##깁니다
##전기금
##부작
유성구
감원
##만을
김의
초동
##장려
##시술
쇼로
알차
##식량
##담의
아산시
##보호구역
##장부
성교육
##맹이
풀풀
공공시설
##제보
한다면서
대등
추론
항쟁
원통
승부차기
사이언스
##놔도
인피니티
##올려라
역사관
천억
##o
뭘까요
##규의
애착
##갈래
##주둥아리
짰
교통수단
##구여
간수
김동연
처장
놓칠
##ㄲ는
##시멘트
보살
후끈
##도장
다녀도
사네
일부분
##땐데
이월
나빠졌
##여수
화신
한탕
별게
코웨이
##모를
##장교
##반부
오메가
##온의
디비
공허
##총질
관광버스
##뜯어먹
권위주의
읽힌다
##발견
복역
자유형
핸드백
차상
스치
서청원
##진주
##당사자
회비
선이
식기
소량
사본
##장병
##제조업
두드려
감옥행
대명
##못했
안타까울
생리대
금상
금형
우대금리
##양산
레인
맴돌
##한우
어때요
걷어차
쓰레기장
영선
##그나마
확고히
느낍니다
지하철역
##사망자
그르
오릭스
지껄여라
포옹
##k
눈시울
##오케스트라
NBA
차떼기
##망상
엌ㅋㅋ
치러진다
##식과
다량
이너
##찜
롬니
성북구
앙상블
##라디오
해열제
폴크스
중론
반성문
흥청망청
##상무
랜드
일인
##벡
##發
헬멧
부사관
인덱스
##끈다
##복원
백미
지날
갈치
본청
##CJ
대진
물기
주소지
발각
살아난다
군포시
케빈
가옥
코미디언
프로포폴
세계유산
##산국
##막힌
엘리엇
##표명
스팸
오랫만
##앞두
흉물
심한데
낙지
ytn
깠
##천장
메가
##측이
안내문
##밀도
고속버스
북극
하노
즉흥
거잖아
##강릉
##척결
역의
##고추
##인고
중량
나타낸
##립니
피도
떠들썩
해야겠네
##아무것
포로
고취
상한선
죽임
##심보
##껍니다
나들이
##스펙
잠재우
##서가
##깟
##묘
어려
##인멸
김기현
##예술인
인품
항모
다님
##편히
##IB
##음직
출당
꺼낸
##기어
까내리
진면목
박용진
##진정한
별루
직함
##수산물
피신
산거
##셍
🐦
##원정
선주
방명록
##문임
##지부장
응시자
소총
##성폭행
독수리
##!!!!!!!!!!!!!!!!!!!!!!!!!
예스
##올릴
실루엣
##큼
피아
분하
스트라이커
##려도
대덕구
섬진강
설설
146
##남도
##감동
##각오
##슬림
맞히
##도심
통탄
광고주
##실무
##도리
운전석
담양
부녀
고이
수류탄
##병사
전지현
##독제
꿰뚫
출토
터트렸
예일대
##왕자
##자들
힘주
폐가
한산
빅리그
철책
조인성
친지
찢어진
배틀
비벼
##無
롯데카드
##사발
##개도
##자지
에어백
스팀
KDI
##니께
분별
만년
##..^^
조광래
김태희
고무줄
남남
##상상
##동료
로테이션
호통
건져
빈티지
덜미
##내밀
경솔
##순례
##퍼지
##쉴
작렬
난독
가석방
MRI
지구대
성산
난도질
##민이
요격
##개성
한국식
수사나
시안
위정자
골반
##제강
갔었
##선서
날카롭
큽니다
고쳐라
##마귀
튀김
##와인
경찰대
##클리닉
##난다는
삼계탕
성직자
##문정부
워너
상이
행인
놓이
##흥
밑천
재탕
잡범
물어봐라
The
##레스
낙태죄
선구자
불친절
졸지
분장
##ㅔ
요구사항
##우습
##예산안
각급
허리띠
##깜짝
나아진
##철저히
##퀴들아
가까웠
판도라
##직과
반민
##욤
무서우
박빙
계주
포트
합천
지회
친모
흔치
변함없이
##상하
불러도
위엄
안전장치
##해봐도
##관도
탈법
걸어다니
##죽창
480
##계신
생후
##공갈
노려
중전
##진연
##오전
이모티콘
##문건
신아
신영
옥외
하순
위기관리
편할
아시나
방미
쿵
지날수록
자아낸다
##축전
매료
##내과
심해질
돌려라
##짧
합숙
시구
의약
고속철도
##획단
명재
다카키
금치
##소행
들렀
명태
옹진군
탈루
들어줄
중생
우완
기다린
와해
##시다
좌시
스며들
굳히
접어
콜라겐
수준급
수족
##면역
외인
스카프
##계발
키워서
무능력자
##는갑다
보청기
##정기
##파로
##보급
시조
그러면
갈려고
##모자
기싸움
원생
##배분
하의
다져
가설
추운데
##선포
김연
경제인
##처넣
##클릭
##국보
##사파
제이
##냨ㅋㅋ
이지
연수원
도어
레슨
광양제철
크로아티아
이뤄냈
환생
나쁠
됐으니
##역전
정주
대표인
리처드
뜨거워
야스쿠니
도수
섹션
목메
눈가
김연경
라면서
##미년
돌아댕기
밀실
##!?
##공포
부가가치세
올겨울
##풍선
뭣하러
##딸년
비일비재
최하
월화드라마
사직서
##시모
2800
바랐
치우치
패자
선거일
##놔두
##검의
##위탁
미진
사당
##출입
전보
운전사
##음의
##화합
##곰
##합당
##고발자
그러게
##정가
오마
147
데이터베이스
레지
회초리
##깽이
##춘천
380
##경상도
찾아온다
##능가
통일교
연꽃
소말리아
##?!
큰데
##열사
정당방위
땅덩어리
덕담
##꼽
##어째
흠뻑
꿋꿋
##손보
성병
##이만희
##스크린
##둥이
뛰어드
악역
##내장
수목드라마
늘려라
단도
##부두
지켜온
이기주
지겨운
##3500
아래쪽
##버거
신분당선
감리
우회전
정부안
##왜놈
신드롬
원심
소풍
##경과
지켜줄
슈퍼주니어
사기죄
근원지
윤기
유임
기다림
新
##특산물
가망
만족감
##이라고
편해
해골바가지
##챔피언
산업체
태화강
알맹이
##통신망
뜯기
##발전기
환절기
##용서
##저놈
##아울렛
나눈다
애호가
정설
##보상금
##서울시
##향후
바라기
##별의
##오른다
##치르
부설
횡설수설
괴담
##막걸리
QR
쌤통
술수
##센트
직권상정
염소
득달
두려워서
까놓
더부
반죽
나와요
올라도
기우
주동자
퀵
골랐
##가인
살벌
라니
손꼽힌다
출입금
관해서
북항
##살인범
말조심
역겨워서
하진
축이
##쓰리
곡성
반팔
좌익수
접견
승려
센카쿠
언뜻
학내
빼돌려
레오
끌어들여
일의
체육계
쌤
묻어나
원색
뭉쳤
그려졌
##증대
아쉬워
하루속히
##호식
받아들인
집약
##귀신
건달
개회식
##템
고소장
기자재
##으셨어요
##내보내
##태국
##고민
##무료
##주작
##차이나
김현
니까
제패
##따르
하산
단종
표밭
모략
ㅗㅗ
칼라
##찾아가
청렴도
##달료
비엔날레
절절
한국군
줄거리
흉악
되새기
배관
##강과
김학
##들여라
수녀
서정
황토
훼방
##****//
진보당
브레인
먹잇감
##관광지
협동
##SBS
디딤돌
잡초
##텐트
교제
##세븐
취객
##캠페인
172
혼전
##시향
영면
##거르
수축
##문란
##고집
까네
싼타페
나날
산은
다릅니다
보여요
향한다
열나
##對
거덜
##드냐
예절
불러올
3300
미온
합해
##원화
김하늘
고함
떡국
반덤핑
물뽕
분출
인터내셔널
싸인
파운데이션
여교사
머신
부천시
박항서
맛봤
투혼
##소비세
##추세
해줘도
질감
목매
전립선
금이
131
##모시
빈약
유배
귀결
폭스
지정학
##냇
홍문종
권성동
할려
쫓아가
##권역
농기계
녀석들
인천대
미룰
031
##질병
재추진
교묘히
##동강
##마스터
번만
행군
개짓
리딩
의논
Z
##이잔
자지
##건설사
##함마
반한
스틱
##!~~
옮겨라
##무식한
피치
##나부랭이
##굽
암말
귀속
담판
##진술
예뻐
뒷좌석
##001
##변인
맞춰져
온다는
대구대
성품
##겉
7500
개죽음
##자빠
##그대
김병현
빌빌
기숙
도깨비
폴더
##유승민
편익
스페이스
쾌유
##반역자
표지판
일으킨다
올드
##공황
종의
##국금
##조면
형광
차입
심성
2050
시초
자도
##는고
##벌려
멀쩡히
난리나
동정심
##그려
##라네요
##시공
##일명
##붉
내포
즐겨라
리디아
##리온
구멍가게
순익
도륙
골잡이
##데스
##잖여
김효주
모차르트
매끄럽
포섭
##시정
##본사
줄기차
토마스
부제
##소지
##졋
##전역
관악구
동일본
초상화
금년
##부당
##지배
##달래
장땡
원청
경영인
##삼성전자
말짱
1967
공부방
FDA
정수장
##펄
조희연
웬일
알고리즘
아닐지
이따
술값
사투
집의
담뱃값
##유틸리티
공공연
북경
##동결
검단
레슬링
##작성
기네스
시기상조
유정복
후베이
##111
작업장
견지
우드
##라더라
##고마
##특강
전희경
살아오
리얼리티
무서워요
조선사
다녀갔
주무르
무의미
맹세
설대
가로채
담론
##반영
옵니다
##압력
용감한
놀라움
##고만
##깽
##다니요
뒈져
##모름
아메리카노
야무지
BC
290
넘어온
##케이블
동이
사라졌으면
MLB
봉중근
교육장
이루어진다
운지
AFP
초읽기
트인
절상
연천
##별로
망한다고
온기
프레젠테이션
중기청
##건들
해독
지점장
##모지리
채식
##증인
주군
개망나니
스케이트
##태양광
##산지
##ㄲ들이
##문단
##~!!!!!
온누리
##장학
##감찰
1963
때려서
눈물겹
##어나
도그
무디스
##보이콧
잘라서
이국
이데올로기
##좌익
##청춘
간통죄
사놓
하수구
아들놈
정품
여간
얌
청신호
케네디
ICBM
휩싸인
SF
교리
부딪혀
##아드
##사법부
##ㄲ들아
풍토
올라야
별칭
후진타오
가락
##저감
##피트
##저질
모자른
어쩔래
##상황실
모건
##위장
김성수
저세상
##베랑
아역
##韓
호텔신라
##前
레미콘
걸어온
원은
증강
##휴양림
몰고가
별별
##날일
네트
터트려
##선행
유난
난제
##강아지
내리막
##플래닛
##계장
##풀리
해녀
확연
문파
나와야지
##문항
트루
문충
세모
151
맨해튼
슈퍼맨
에쿠스
서늘
##어야지요
펫
일억
##선인
자고로
##방울
늦춰
둘러싸여
##통보
##큐브
밋밋
수놓
부러움
근소
칼춤
해묵
##특권
##분권
##드럽
##노출
낭패
##이터
##장수
국무회의
##을라나
##로우
##침대
##점대
헨리
##록지
##냉
##쿵
##점점
##회의장
파이프
잡아들이
감정가
충전기
사행
역사책
흥남
##웃긴
득실거리
미백
날아오
##PGA
##보여요
##원료
살펴야
캐디
거제시
##체증
내야수
능숙
내국
##살포
UFC
쑥쑥
사라짐
스미스
##을려나
##산불
남원
승수
차베스
어버이날
##혔
##옌
##신인
베어스
##재개
##배려
환갑
채비
##시아
여과
##등록증
##그리드
##고양이
경멸
##자릿수
##특인
슈트
둘레
낙타
마우스
##양파
가정교육
##쳐드
가천
만하다
롯데제과
##반란
##얌
일지
체인지업
##설정
##시들
메꾸
화소
야야
쿼터
감수성
김보경
쟁쟁
풀뿌리
바쳤
리허설
그리운
허망
##죄자
취수
무인기
##가지가지
##요의
찜질방
칭하
전파자
외자
쌌
알아내
순국
해바라기
##교안
컨테이너선
애칭
매혹
선거제
나선다는
증자
치적
아미
쥬
근황
##서구
음악가
중과
여하튼
지영
ESS
궁궐
꼬인
최고가
홍보물
억장
850
빼돌렸
그런다
명맥
##수역
개작
불러온
##만인
AK
육포
미혼모
소심
기네스북
천민
##구글
##찔
글의
새겨져
비상시국
주심
유라시아
구슬땀
플로리다
보험업
쓸어버려야
길가
물으면
##쌤
##후회
베리
139
##중앙은행
교통량
##크루즈
백은
님의
##성추행
##불과
영업시간
국운
모기지
감액
부지기수
##새리
러블리
##우산
광분
##함부로
##가톨릭
호적
불구경
망설
갈색
올거
네이트
감도
플라이
도와야
넘쳤
중한
##당가
유례없
자카르타
정돈
철부지
장자
방울
##비트
실외
##스위스
직간접
##')
통찰력
홀몸
##증명
틀림
거름
임자
##팁
##건드리
속임수
##쉴드
즐거워
##이력
##메이
단돈
뒷모습
실로
빌게이츠
차서
##우롱
불합격
저널리즘
망가졌
##은데도
##섞
문둥이
웨스트
##마이크
알렉스
노랗
##어라고
중장
##아메리카
태그
스포트라이트
문맥
선로
풀무원
수비진
베란다
##아름다운
훈육
TPP
학술지
아베노
엔지니어링
##쾌감
##는가요
롯데케미칼
얼척
말렸
##지껄이
아기자기
중개업
돼도
쫄딱
##승계
기막힌
##롸
##소독
##배수
어벤져스
손가락질
이뤄지면
##하가
사로잡혀
항산
카스
##디자이너
본데
헛발질
비뚤
##간호사
기어이
##마사회
##101
김형오
포켓
둥근
관념
각별히
달서구
생겨난
로동
순경
시험장
싸돌아다니
식비
##매직
출범식
안락
##올꺼
매립지
지져
##비치
##THAAD
불기소
총동원령
전사자
##농촌
##정답
지킴이
필라델피아
타임스
##인제
경리
요동치
##석기
배심원
양평군
변속기
전언
질소
고화질
사달
##GS
진부
##선임
##작인
부주의
동색
걸으며
단상
이케아
합세
##ㅓ
줄다리기
레드카
인원수
6500
##리부
##不
##괜히
발갱이
찾아냈
화교
##이낙연
##지롱
끌려갔
##인에
뛰어올랐
놀랬
기집
용의
##MW
기자단
상추
미리미리
스터디
감귤
##창단
이루어져야
둘러싸인
##건디
흐려
자평
##벌기
##짠
야구팬
쏴라
얼간이
##장직
##글의
수강료
피드백
##🐦
##조서
벌집
##제보자
##망쳐
튄
010
강관
커쇼
테일러
##산이
숏
156
어정쩡
##시세
먹먹
##꾸며
머리털
##닐
기지국
##마루
개악
##줄지
김혜수
족쳐야
##갈통
함안
윤상현
발현
퍼질
##삐리
단세포
달라서
##자치단
이체
##알리
트레이너
아낄
정상회의
##끌어갈
분위
문비
##뱉
우후죽순
##로웠
사냥개
걸려야
##조센
균등
##후예
틈타
멀티미디어
모국
내분
기념비
박석민
할리
오송
##패키지
##사업장
고압
출하량
무어
##한다구
주임
##是
뒤집기
##붙여
##엣
꼬랑지
리메이크
징글
작살나
158
대인배
파보
##저건
해괴
##불나
##씨부리
튜닝
발자국
서막
시찰
살아났
램프
##소이다
성악
유턴
지어서
이창호
520
미터
##목록
취임사
##태어나
내홍
몬스터
꿀꿀
설립자
##장식
못나
부름
마리아
149
안정세
부끄럼
납세자
찡
어류
내려지
미싱
세이
바닷속
반바지
🐕🐦
송철호
양아
ㅑ
대왕
당한다
지경이
팩스
ISA
##신장
하명
오감
##한쪽
심해졌
##~,
##ㅜㅠ
이동식
##동산
굶겨
##될수록
MD
패스트푸드
묘소
##문고
##무근
밀려났
##석사
한약
##황과
난생
치하
기체
장단점
이럼
다진
끌어올린
시들
이주노
저쩌구
스파크
Korea
까마귀
유분수
자연인
윤봉길
봉창
입막음
추돌
쳐가
##성모병원
단초
##강원도
박정
##희생
납시
##떴
광학
##관리자
뻥긋
본적
##괭이
제설
항거
##굳이
##주범
##수욕장
430
다반사
##럼프
##러브
##재건축
부추
##지면
항암제
##소방
벌크선
무도
저열
소인배
명명백백
소견
선택지
420
##껌
특활
시트콤
말린
두드러진다
##무력
차립시다
신하
설현
차분히
외과
소린가
##구니
안달이
해부
154
링컨
군소
##키워
조서
할께
##핑이
부원장
##경정
##cc
일군
트림
##선배
걷어가
자퇴
마침표
응원단
세관
##보입니다
##폭포
##.;;
겁쟁이
##진핑
##과일
속인
치이
##상관없
##아야지요
손짓
토요타
학장
보고회
주려
##즙
사무장
##인지라
투하
걷잡
##KBO
##역세권
##약서
##그치
펴냄
각막
##대북
##내지
##다메
##목포
##당인
개항
##법위
구심점
##내륙
어찌나
##잘난
오션
교직
클리닉
동태
무궁무진
##LA
교전
삼바
엇갈린다
부피
##분당
병영
의과
사망률
부풀려
##퀴는
비평
일출
자족
##버려서
##함대
SH
##개헌
##주점
세일즈
Mnet
##일테
예사
자화상
윈도우
정곡
##도라
들으면서
##거던
기해
아테네
아치
##sec
혈중
##참고
펀치
떨어뜨려
켈리
흉노
매니지먼트
##문사
조온
농간
도교
영국인
산청
오프
##푸른
충무로
##떄
##투기꾼
직관
임대차
가꿔
급식비
드러낼
##선대
치러질
고춧가루
노량진
액자
##챙
##안전망
##앵커
야만
##적극
간병
정치성향
질려
영영
##획관
##놀이터
##주권
대항마
##당일
##향서
##어다가
구위
편곡
##WHO
##?...
프로세서
##파이프
파편
뒷바라지
##올레
##조사의
##주라
이판국
##편이
번졌
영아
누설
스톱
##가해자
중력
##고고
패드
생김새
전매특허
정찰
소중히
왔다갔다
된지
조선일
고열
심문
근린
터무니없
재워
자랄
캡틴
후반전
##키를
##끝나
원세훈
넘쳐난다
삼양
##추위
정치력
##땀
차입금
##이라
화단
퉤퉤퉤
미래도
##2004
종아리
와일드카드
성군
##온갖
##아닐
창조적
깎아내리
##변이
되짚
##허위
혈통
음색
휘말리
상대편
국조
##꼬리
극의
##옥션
맞물리
재정난
방범
##관심없
플래카드
지반
##뱃지
아전
177
김재철
식생활
##항이
변별력
과메기
##내각
접했
순순히
존립
의기투합
##해명
##한다던
일찍이
최나연
##취한
명운
매스컴
##mid
랠리
서둘러야
콜라보레이션
##TEST
절경
과한
영상물
간다면
지웠
수업료
이상화
금빛
뛰어다니
조커
서바이벌
허니
##침입
별미
죄명
##둬서
##진중권
##펀딩
##참가
##떳
##유적
투척
설움
아자
##다기
##숨기
기념사업
호모
##서열
##신자
##수비
번질
죽여서
불운
스포츠토토
노역
새싹
##을란다
수온
튈
##광신도
##고려대
##매도
대당
##기증
후반부
망라
##과실
곁들여
과학고
밤잠
최정
##만난
어시스트
##먄
##채워
통관
성형수술
보약
##껴서
달기
조용필
##대포
##으래
파나소닉
한화케미칼
티끌
##마져
똥내
팀워크
스탠더드
나스닥
박명수
노장
##위선자
ㅡㅡㅋ
졸리
##각지
오냐오냐
##시설물
진행형
과오
##교향악단
부대시설
##과학고
##설사
조끼
오른다고
굳혔
카운터
흔쾌히
돌려야
."
폐차
금성
조교
##갇
울창
몰염치
##양이
천차만별
사요
띵
----
양심선언
##VR
185
##미사
##해방
되돌릴
지배력
남북통일
뒤져도
캔버스
애원
감쌀
살펴봐야
큰절
주네
송출
##제철
독대
쏟아진다
당헌
찔렀
약올리
내려다
168
##대다수
##맹의
##배터리
##김어준
세팅
상근
##부양책
예정자
신주
##PO
결단력
대한상의
##취약
유소연
세척
특정인
드러워
건도
디폴트
궁색
흡혈귀
##떨어져
예천군
수문
아까워서
##민은
무법
##드가
앎
##교가
완파
##기종
##발레
날렵
##애초
환멸
##열도
##동서
몰려드
##신다면
##후진국
##얹
나온다면
군단
연다고
##실사
진실로
베트
대공
줄려고
발자취
얼렁
##휴대폰
##진다면
##으루
걸까요
주미
##웹
중앙아시아
NGO
##쪼가리
##?????????
##난게
혼동
##정식
빛내
##사업소
명가
##최소
개법
리바운드
##선거관리위원회
불러다
가실
민도
판독
고용부
세세
무시무시
마리나
##연락
말다
##MS
중환자실
고착
쫏
드라이
밀리지
날까
시드
책장
들으니
##구안
여적
##이쿠
캐논
다자녀
마블
##후배
쌓였
방사포
짊어지
##밝혀라
필립
원외
대못
헤아리
가져간
어림
##LTE
불러오
묻힌
앙코르
##트랩
외투
##문진
##레드
고택
##압수수색
##하수인
사용법
##2019
##둑
병든
이과
##예원
양동근
예시
##쌩
수에
설명도
가격대
주리
어쩔려고
맞설
##탈의
볼티모어
이군
외세
##궁리
폐허
스트라이프
한림
친형
##잠수함
##출동
##인격
유부남
은행원
페이퍼
JYP
중이
아낌없이
그래서인지
##진도
고덕
미워도
귀싸대기
세브
위로금
숨져
##직인
아웃렛
##실제
##나빠
우라
걸작
급사
##남충
한중일
##정신과
고속철
후판
##하드
##청소기
##봣
##멋지
숙였
사업단
백기
휴학
##체대
순한
착해
##귀촌
돌연변이
##시미
끄집어내
분분
##텍사스
소지자
##정과
부린
금호산업
고환
3600
훔쳤
될까봐
##도둑놈
구매력
국지
##㎏)
지중해
팔릴
##기만
##났으니
##다님
자갈
암묵
일례
##셨으니
##야대
MP
##그날
모른다는
역경
##리버
##스파이
애환
제네바
감정평가
##설계사
##자본주의
초상
낮잠
##향우회
소나기
##MVP
악담
쿠키
무난히
기울어진
대위
전여옥
보육원
##家
출점
직설
##프라자
##충돌
오비
패트
흘릴
##취득
식음료
담주
##털기
##녜
##다느니
설이
방이
하이패스
저점
제멋대로
고품격
##작작
유명무실
##고야
설계사
변희재
탕감
당적
명지
##고백
차우찬
이만저만
##힘드
후려
수려
기댈
칠곡군
잉크
##밖엔
서로서로
##체결
##출처
신호위
리프트
낸다고
##태우
빈손
신보
실존
##시체
싸움질
##첸
##나이트
##다요
맡겨라
##니나
이상득
거인
##자주
어이구
##는개
##농도
크라이슬러
양지
자장면
좌회전
셔터
끈질긴
내재
실직자
우루
##기질
기축
탑승객
온화
봉착
##투게더
오답
평정
##나쁨
뚝뚝
기러기
제철소
##모터
##놨더니
##삥
##들어와서
피폐
##김일성
등장인물
한화건설
##폭격
깃털
쇠고랑
아랫도리
시네마
가린다
열전
조사단
솔솔
##새벽
##글씨
##특사
폭소
##고등학생
동물보호
깔보
##%)·
조모
더샵
격전지
##미용
##청주
##추의
은평
기초자치단체
##행각
고성군
기하급수
레파
##담화
##득실
##r
##테이블
##지하
상투
미움
1953
한국노총
##계수
구해야
알찬
하승진
안구
그래야지
일임
##개독
영양가
쏠려
한풀
##지율
피우진
##끝내
쫘
파괴력
##공학부
버터
##깡통
##박멸
문젠데
##으라면
##숙
##윌
##미동
##실명
식재
##붐
부어
한다더니
달구
##과열
첩자
구데기
이글스
힙
다발
뺨치
분개
떨어져라
정부군
스탠드
산화
소회
어려워질
천정배
피서객
##넝
노점
빛깔
비오
##경호
##좌석
외의
악명
##장모
##야쿠르트
유례
유공
##리오
자결
고려인
##동화
합쳐도
열병식
##!!!!!!!!!!!
어겼
##리자
보온
##수자원
자명
##준다는데
두드러진
숙취
##부시장
##보미
줄서기
##돼냐
전권
##연봉제
##병력
열대야
##여객
최문순
찰떡
토악질
이상일
매화
응수
걸핏
##쉼터
##전시실
##발달
##수목원
자축
페리
##병상
광주은행
법사
##화나
뼈아픈
##야로
##타율
##슬프
가야금
김관용
알카에다
독서실
독사
일거
##천가
비비드
##메모리
갑상선
통용
해병
##윤회
##처방
강경파
설욕
##암튼
듸
ㅜㅠ
정근우
결격
##확충
악독
고소미
무서운지
부딪치
대서특필
##떨린다
한혜진
##빔
##기득
지방채
##경마
밀레
덧붙여
##완의
경남기업
애틀랜타
여소
태종
충성심
##감염자
스레
새대가리
명나라
주창
앤디
기조연설
낮춰야
투표함
니들
1966
##골든
레이디
닥칠
##여행사
난사
불평불만
빨강이
단호히
##넥센
중성
세계관
쏠렸
망발
차두리
##적절
헤어진
희롱
지켜봐
요것
지긋
##신청서
##센타
역삼동
370
무허가
##서버
##침몰
파일럿
인프라스트럭처
예비역
노면
찔끔
##서초
##데일리
허울
강박
QM
스탠퍼드
##생각나
한센병
##회화
요정
##점인
면밀
박진영
깜냥
용석
프라
##아이폰
##운명
거여
꿈꿨
국과수
해줘야지
눈동자
다가서
##의상
당겨
바쳐
얼라
지성호
市
##본명
교통카드
셧다운
##입금
##빨대
급박
##빌리
타의
퍼펙트
분화
열렬
사신
악인
수와
##유동
밥벌이
##가만
세계사
졸업장
푸념
프런트
관람료
##추하
처들
봄꽃
메디컬
##호랑
달도
투정
##경원
땡기
생동감
빽빽
##성실
로얄
##싸가지
##부업
##시책
불면증
##참모
해야겠다
평촌
완구
손해배상
박희태
채무자
비밀리에
시커먼
깜찍
##심장
상쇄
두배로
시켜도
주취
본체
겉모습
##볼땐
##되게
##라스
떠오를
하란
카운트
줄임
##단총
##동양
일교차
AFC
엘시티
##은대
허긴
유병
인륜
상담원
망고
##멜
##개원
뒷심
외식업
개와
막자
매회
##휴일
줍니다
##철새
근심
홋카이도
세워서
자유투
후의
곪
민박
허비
##나눠
##아이돌
##크기
양준혁
지도력
베이지
##전서
##이사회
부식
남겨둔
##공안
넘버원
무현
YS
텍스트
끼친다
##배워서
전석
초계기
지쳤
배타
배석
스키니
펀딩
유치장
인도주의
##창인
울궈먹
##~~~~~~~~~~
LCC
루니
프린팅
녹십자
임신부
##선관위
##들어간다
황금연휴
권의
그쵸
단련
선거관리위원회
강철
##남한
망한다는
하심
##해져야
##저하
이용규
상왕
##위즈
강제성
빠져나간
##정제
가로지르
능한
잔고
##방해죄
##손석희
go
주접떨
환호성
##다를
카터
스콧
##돼온
편안히
파헤
##뭍
들추
##한글
볼땐
##터질
연변
3200
안전교육
ㅜㅜㅜ
고산
젓가락
군필
##바퀴벌레
비스
##무상
##는단다
다각화
출구조사
부러운
##예능
배고픈
섭씨
팔짱
##특기
가디언
##취
투표장
보호구역
##듦
담아냈
여아
##공직
철거민
IC
토사
때마침
##다툼
##표창장
##자존심
오크
여긴다
##가단
강지환
뒷문
월화
거처
화환
##안녕
##한류
깨물
##있는
군비
명사
황폐
##학당
손맛
양구
##수작
이광재
기울일
김예령
토토
##소감
##하수
NHK
옮겨졌
빨랐
소프라노
증거물
##물러나
##들인
##****/
이종범
요점
이스탄불
##발라
기일
##국행
덮친
수석대표
개거
##주네
##자형
기본기
맴
##아부지
갈구
##좋아하
KAI
저층
리츠
##...............
##패드
##세탁기
##공휴일
스티
##래니
성관
주무관
리우데자네이루
적조
1961
##신임
게임기
지어내
미스테리
##지킨
면피
조질
##상고
일구
배당주
위구르
벼룩
##전문대
캘리포니아주
공고히
재회
##비싼
##자니까
하질
파라다이스
협주곡
바비큐
우짤
복식
부가가치
요지경
기립
##순환도로
지드래곤
준법
돌리지
한족
반향
##출시
어촌
곤욕
##아이디
궁중
올린다고
버버리
느려
##소주
##배급
다방면
출연자
폭정
효용
##가도
다수당
취해서
어획량
##이루
단아
바라본
지평
관습
줄여도
심정은
##명절
##플레이어
##조직법
##업적
갈라서
미시
##험
장식품
들판
##퇴근
상체
스리
뭇
티벳
부엉
##을려
##단강
꽃다발
정독
##도시락
##우가
포천시
현란
##보강
##시실
알펜시아
셰일가스
전생
##관상
##출석
맡겨야
데려와
빈틈
앞머리
옳소
나팔
편집장
162
##시안
##즉시
분탕
##낙원
##해집니다
##홧팅
2023
가보
##튜브
##루이스
책임져
왜사
##충의
유지비
이기자
스프레이
베이커리
귀향
합성어
##행이
콧물
행정명령
##유명
염치없
브이
가로챈
지당
빚어졌
##비에스
장갑차
1964
##돌아오
유찰
눈멀
앞장선
편백
난임
하극상
차남
배상문
유닛
구정
英
드라이빙
성행
장밋빛
튜브
말없이
종량제
이한구
극동
괘씸
애절
##창업자
##화이트
그만뒀
드리블
스리랑카
대비책
갈대
갈라치기
설상가상
##전염병
윌
##신다고
사무처
##7500
외지인
오른팔
박보검
##나머지
의경
인스턴트
##입이
경주시
##렛
피싱
##서양
슬로
##서적
##멀리
##랑의
앤드
##세미나
봉인
서킷
##친다고
압권
##밀착
연가
##중임
천당
알바로
##양면
검정고시
남향
시합
신학기
##양자
소린지
##강한
부양책
아니요
재작년
해상도
표리부동
잠복
고분
애타
허상
할애비
양식장
꺼졌
행자부
드가
##도피
합의점
다자
##지갑
팀킬
다른데
나위
##화랑
하토야마
정치권력
제반
샴페인
썸
제안서
들여온
담아낸
##자책
빠가사리
이주영
여중생
##바꿔라
가서도
친목
응대
##동계
교보
거하
##래야
##복권
출정식
동방신기
##재밌
##민중
##달성
알아들
##053
말끔히
##특집
##청정
붙여진
너구리
합한
만졌
로열
치약
임명장
구정물
##LCD
##영원히
##모인
괴롭힌
일단락
재무제표
CU
무수
황운하
적의
빈민
흥겨운
##미스
씁시다
##시켰으면
고참
##오만
감췄
야욕
##싯
저시
##라이브
초코
매서운
##학관
##경제학
##기름
뉴스타파
시당
전할
##쪼다
##가액
깔렸
##진구
##문제지
##산도
##겜
##해놨
보배
저명
중독자
도올
##간지
청량
호우
마지노선
##.???
##여단
찜찜
별관
버라이어티
해놨
해선
오버랩
투자액
##질지
안내판
희미
##새이
##본드
예단
하정우
철창
봄의
##캡
버틴
보드
특근
##퀴들이
잠입
변화구
##연극제
##두목
멜로
떨어진다고
끊긴
반대쪽
병맛
일세
시민운동
##공무
기린
이루어져
##구상
##주식회사
캐리어
읎
요샌
##블로
소질
대립각
요거
##AFC
정평
적십자
휘둘렀
##잔액
채권자
감춰
아픈데
벌여왔
가스공사
디바이스
##명이
복병
몰려와
잠겨
연말연시
명예퇴직
부창부수
수출국
##흑
처남
##보인다고
아크
##파트너
우주선
##롯데월드
땡겨
##타선
##플라스틱
##렌터카
중식
##힙
일궈
랭크
등심
##액션
##주요
오우
시급히
빌려서
위중
제쳐
갇
##찿
묘미
178
목조
티아라
전반전
능구렁이
테임즈
실제론
초입
##적료
결핍
##박살
##돌대가리
라이선스
##루트
저학력
필립스
대타협
##유투
알몸
##1200
흙탕물
##건축물
아르
##독서
##라면서요
##애자
발품
월별
love
##이중
알츠하이머
##발목
##구석
##응방
##충북
청국장
눈살
##똑
가를
##원주
친수
##당파
##알아보
따끔
##한다던데
상무부
삿포로
마오쩌둥
콘테스트
##라떼
##탠
케미
마사
거포
개발제한구역
대출자
천년만년
홈구장
선양
##형식
갈길
##깨진
##리니
##지붕
##119
답습
##선동이
CMA
##병합
가정사
##일본인
약해서
##챙겨라
기출문제
콜로
마음고생
유휴
시키네
반대표
물린
뉴시스
김웅
천심
차단제
##열기
산유국
이승우
남한산성
##문구
사시미
연합회
KOTRA
필지
더더
끈기
##빙의
거란
사우스
지으
성황
##거야
화기애애
동대문구
명부
김광석
따졌
##써야지
그만둔
사관
##으믄
구조대
못난이
블로거
물불
돈지랄
##의해
개운
태양의
상병
칵테일
##쇼크
##지적
평이
박형준
밀라노
노하
계산법
##문학관
##b
석자
##숙박
꿰차
퍼뜨려
깰
액상
틀려
##골통
##보리
##진동
##풍력
##민속
내몰리
기이
쐬
클러치
라벨
##품종
씨알
다녀간
조형
쇠뇌
1940
뉴딜
산사람
##국밥
막중
트윈스
##야구장
의장단
애국지사
##죄송
##두껍
손서
미공개
학생회
##맞이
아둔
마이애미
##종과
중범죄
##신항
누린
지원서
軍
석유공사
수면제
##출근
박람
##평창
##견제
뜨끔
##고려
경이
##배워라
##비아
세키
채점
##렀
진땀
혹평
##꽉
통채
##대놓
##무덤
두둑
##퇴직
##모건
고된
슬퍼하
##합계
##어이
##다승
##출판사
물어본
##스터
##무중
칵
대려
매실
부끄러울
뎃
흘러나왔
중심부
##개조
승질
휴교
빡세
물줄기
##급수
베이비붐
##가져
너야
커튼
기흥
민석
##세욧
엇박자
찾아간다
교보문고
호환
떼돈
##도도
피살
중국식
용적
존치
##트릭
로망
도미노
두꺼워
미스코리아
경제난
##마녀
여지없이
쏟아진
코어
필수품
정은경
현판
##개시
따듯
개그우먼
##J
반자
짜집기
지지리
쇼트
훈풍
토했
##산림
꼬였
위용
달려온
개양
할지라도
인계
##쿠데타
경주마
##전면
머문
서민층
로스
도로변
엿보
역내
##통로
오다리
행각
빵셔틀
할만
치맥
##나들목
모셔라
빌릴
##나옵니다
곶감
##도쿄
##중고
들여놓
간곡히
골몰
##숙의
로저스
탐관오리
##스와
##북대
투철
석좌
임대인
##주립
##종사자
들어간다고
끌기
숙여
담기
##세도
##느껴
불지르
##고전
##바이저
##하하
배설물
수은
##몽이
렉스턴
##김포
000
청구서
찍자
##라요
할라
였으면
포스팅
아까우
돌린다
들어맞
옅
##미추
백두대간
한민
대수롭
##부디
심장병
낙수
##때려라
신간
스쳐
##스페이스
##손상
수작질
##제회
##북스
탄수화물
교학사
##씸
백서
함평
지으며
##성매매
##쳐야지
##휴게소
비로
떡밥
가늘
먹통
섣부른
##지소
드렸
##저딴
정의용
##석유공사
병동
괴로워
앤서니
계엄군
접촉자
##모진
청부
##참나
박정환
##하우
머스크
양용은
##세뇌
외유
치우친
##인종
FT
##4500
##영양
위트
진선미
##인시
빅딜
##다섯
먹구름
귀재
못내
더듬이
##너거
##덩이
##박자
심산
##핸
방송법
권은희
겸허히
##대야
권양숙
짜내
하모니
키움증권
짤린
돈가스
##거랑
이빠이
##망인
##슈퍼스타
퇴물
일전
##질까봐
##돌이
농후
렌트
스위트
##전진단
##긴급
부심
##타나
자판기
##결론
##신대
채우기
##저지
행시
대환영
떠서
##동참
##삽니다
금주
문단
영산
157
한다니까
삐뚤어진
올까
명색
##들임
##천치
등원
컵스
구속감
##경량
##력도
훑
##장님
##조세
온종일
세례
##아리랑
##태그
블라디미르
기안
괴변
사들이
##130
##억불
승합차
게을리
모여라
프랑스와
치여
입혔
푸조
매운맛
##지킴이
코딱지
##개미
##구선
체급
인화
##중앙일보
캄캄
가본
##환영
공공요금
칸막이
##무선
티몬
배째
##'...
##수련
기대주
##라선
프레스센터
여겨진다
##랑가
시뻘건
##무한
##성급
타수
아이피
다방
선착장
이륙
떠받들
이마에
여심
예정지
##거용
리터
특선
공터
##착각
개씹
네이마르
특산품
##교직원
분만
##손잡
좌충우돌
어치
핵폐기물
드신
##명분
##토픽
급수
줄인다
##기자재
##감자
옵티머스
광역자치단체
##다가오
사르코지
맞춘다
윤미
##ml
미담
할려는
화근
##마요
가르친
뺑
##항공기
샌더스
##부르스
윤성환
##보름
캐리
##발사체
##110
##농어촌
크롬
골다공증
##그래픽
베끼
베트콩
##새의
멍멍멍
신세계그룹
큐브
엔딩
##쯧쯧쯧
고등교육
찾아올
다지기
신안군
옮겨야
숙련
##SW
계통
한국야구위원회
RPG
차관보
골망
뛰어내리
##뿜
큰일나
##관행
수표
외도
속였
##유포
##맛있
FBI
컴퓨팅
문패
경총
##부턴가
패럴림픽
묻혔
변해야
장원준
국민당
강수
##성격
순대
감봉
##회동
수목원
이직
##후면
##장실
해로운
버거
싱어
발본색원
##일반인
##의결
후계
186
증기
처자
##고쳐
여든
교부
지아
찾아낸
기어들어가
꼴뚜기
불러일으켰
관동
서재
홍정욱
부정수
계획안
시가지
##실종
되팔
##부착
병무청
알려줘
가만이
##엔딩
##고파
잘리
지망
이대
끄떡
인영
닥친
모유
##㎜,
포탈
##대하
착용감
##공과
다분히
##스코어
바통
걸림
차악
피워
##단순
기죽
순교
##중개
귀감
중헌
문호
한솔
##해상
##관중
놀리지
조졌
##장년
##적십자사
##퍼트
진격
소지섭
아녔
호중
레고
빚어진
##자임
##바쳐
종놈
##던스
눕
엘리자베스
거구
##언론인
##주마
##개검
##복식
##김제동
##쭉
돌아와서
에이미
##진데
이호준
도전자
##주니
굴려
##시끄럽
북상
간호조무사
당리당략
##💜
턱주가리
##원유
박영수
##베이스볼
체납자
##들어왔
정주영
도하
맷
극악무도
##달도
##로고
끝장내
구단주
메이크
성곽
논현동
미명
오인
참의원
퓨처스
칭다오
발인
각서
부정행위
##2002
제청
##브리핑
갱년기
인공강우
##저지른
해낼
노안
삿
단시간
단비
앞마당
루프
영양분
##친의
냔
##낼려고
전년도
강화군
부동층
거수기
##관리사
김기태
##헛
비싼데
심해서
기특
##짘ㅋㅋ
생계비
직감
##IPO
##교재
##차나
송두리
벌떡
허약
대관령
계략
헤이
경의선
##지주회사
개인주의
죄의식
찬탈
EPL
내비치
준중
잠그
노영민
##말려
폭발물
##DTI
DVD
킴
형수
##라다
##임마
건드
그친다
##여행객
천적
##오로지
##질려
낱말
##음성
긴밀히
백마
뒤져서
##감기
투싼
뗀
##호인
산실
모사
알자
동맥
##플레이스
##만부
배수
##선상
##레인
##안동
김제
##나인
##섹스
##개긴
##xxx
직항
##공영
아이슬란드
입기
군주
전라북도
연필
버냉키
##매립지
열렬히
##다워야
끄덕끄덕
천둥
일컬
마지못해
##손님
##문도
##정작
##정액
상주시
##으셔야
##편의점
##~~~?
뇌출혈
승차감
재빨리
장원삼
감사관
##테크윈
##기치
3800
투영
잇속
콩고물
캐머런
가르쳐야
험담
##...!
노욕
칙칙
##교부세
아수라장
##극치
##弗
관망
##넓
왕세자
회로
물리학
310
##강요
예금자
구운
장기전
##가르치
농경지
대상지
##썰
프랑크푸르트
##연과
요코하마
세운다
오프닝
##줄기
##스와프
##죽여라
##봉가
페라리
##편식
##부수
선관
보여줘라
투박
드린다
##실지
조선총독부
등용
휴식기
자위권
두통
##켓
##던디
뵙
채찍
##얀
문발
아파도
##키스
살린다
거릴
타사
쉬웠
##보인
극단주의
궁전
탐험
추신
세차
##시공사
##고장
시한폭탄
~!!
##슬램
움직여야
##삼의
노동법
##추락
나무라
##쎈
영일
황하나
##구린
##치과
식히
데려다가
##지롤
##지위
비친
약초
##해인
##島
표주
##삽질
##해임
지렁이
노스페이스
피크
##野
##저희
##대지진
개마
시외버스
항균
공산품
토벌
도핑
##중독자
강냉이
군무
부추겨
레버리지
##이자이
연석회의
##들어야
##에고
##겠다는
빙그레
한국지부
퍼터
##려구요
##영제
유커
달아난
고장나
##해봐야
##외파
감점
##파라
##인삼
소개팅
##올라오
교과목
유혈
##친절
기어코
터득
암초
시그널
##사라지
총량
기복
파고
똥차
##허허
##듭
군정
매콤
은퇴자
##징계
##로페이
##다닌다
왕비
조디
##제제
소용돌이
침구
홧병
둥글
강남스타일
##최소한
##실용
재수생
유심히
게릴라
재택근무
분별력
각자도생
이뤄지기
가정과
휩쓸려
짤렸
잡혀서
얘긴
버러
용적률
##무서워
무심코
쉽사리
뒤집어씌우
조그마
##대별
오냐
##겔
##오류
##기념일
리즈
윙
생매장
##환장
중앙선관위
##로와
밝혀냈
노크
맏형
덕지덕지
##소신
기어들
박스오피스
운하
##군부
오월
##복음
마스터플랜
##대서
박제
##표지
악귀
들쑤시
##프린터
결승선
##근대
배출권
족쇄
##시녀
묵비
##본토
순기능
미네소타
##호대
##숭배
조시
뒈졌
4050
물감
##확실히
첼로
##mg
기필코
당사국
판매액
##피하
지천
개회
약소국
여길
##배임
원합니다
정조준
두툼
##동상
페더러
서글프
안드로메다
##각마
경종
작별
##소도
서사
##요령
토스
##2003
작성자
거위
폐광
##압수
회의장
명암
찍찍
외연
##응용
수임료
##야제
##따뜻
국가관
##한수
둘러볼
##전법
기울었
리모컨
이병철
무기력
필로폰
질기
겁내
##취도
참기름
치명타
선적
##삼가
스캔
초구
스몰
##테르
정미경
적다
##한계선
##㏄
현시점
베개
프레
##코리
##로버
롯데시네마
이지스
##州
##매트
티브이
재이니
필패
후광
##다녀온
후한
.........
메워
브라이언
##반장
##따름
##TK
착시
공급자
사슴
묶인
한상
청양
씨스타
##번역
컨셉트
##習
워커
##홈페이지
수칙
전현무
디펜
##내릴
##할란다
휘청
뽀로로
##스로
빨려
투지
어는
##박살내
##한답니다
아드
배반
브리티시
##방이
연좌제
노상
파해
지켜본다
##ㅜㅜㅜ
대림동
##국사
당최
세정
##달린
천성
쥐락펴락
준석
노땅
##좁
부동산업
##소셜
항아리
##三
돌아설
닮은꼴
다이슨
##나니
번화가
씹는
회계사
##으랴
들려오
혜안
##들어와
군바리
##춘의
아쉬워서
앨런
##남방
인디언
미쳐라
순발력
##취하
벌어져
뭉가가
##합성
##주심
둘러봤
네이비
코란도
미애
##깨지
개아
짭짤
울면
PEF
정성껏
서천
로션
보살피
##더듬
개그콘서트
소도
신협
그럴듯한
엿보인다
##문지
##경위
##몰지
지명타자
스탈린
기하
##내외
욕지거리
방폐
음악인
##시오
시킵시다
실력파
갖춰진
바흐
##그놈
옥시
##현충원
##남동
##상호
##집사
##배신
막차
일차
필러
##갔다왔
gr
박용택
낸다는
163
격투기
##곡이
##신약
##종금
칼국수
계양
##해공
박세리
##영령
아닌데요
##사학
치러졌
종부
산더미
빈대
원유철
인증서
##월호
정박
수임
뇌도
추도식
##너라
미납
##촉새
괄목
드로잉
##우위
바이올리니스트
연한
갑론을박
##스러운데
##씨방
볼려고
상암동
익혀
베이직
숭례문
##102
김용민
##악법
##시마
##기신
쯔쯔쯔
내용물
품귀
관광업
##전반
해안가
모피
##다죠
띄웠
복습
의견서
##내시경
송승준
서프라이즈
주검
##의한
창호
미스트
OO
##처지
케리
195
불러왔
##키도
전국구
저격수
연합군
##연예
발기
수작업
개천지
특허청
##비해
피처
극렬
##건과
##스러워서
협잡
붐비
##여권
##진화
해물
##상처
쪽수
꽃잎
내과
##국세청
##올라서
인해서
소상히
소재지
자급자족
메리트
##답니까
문학상
일사천리
천인공노
##죄지
##사수
돌림
##방구
##^^~
비기
##선두
산업재
면허증
무모한
경험담
베드
능사
곱씹
피웠
安
##틀린
##냄비
##하군
입방정
##프라임
##WSJ
안무
굉장
##부과
야생화
겨자
세컨드
친부
##주전
서울광장
##분기점
##법관
조재범
돌아다닌
비겼
본회
복고
역공
##발린
느닷없이
사회학
홍명
호기
청기
##해변
반민주
조력자
##교부금
야쿠르트
##포스코
크라운
최전선
##터져서
새긴
조망권
난자
CP
##이분
##등판
핵연료
##구력
거려
##로스
기염
산수
한낱
추미
뒤지기
##아이템
##ㆍ중
내려간다
원사
갑부
국방위원회
쟁이
꺄
##껀가
태릉
장당
##팩토리
난세
윗사람
##지우
펭귄
##교도
뱃살
맹글
##커스
가교
전기동
##성범죄
용수
굴곡
정략
##등장
한답시고
##나팔수
공신력
노을
##창이
##,,
미지급
담가
정준
계보
딸아이
문무
밤하늘
감돌
아킬레스건
제언
악물
서문시장
큐레이터
사학재단
간헐
흑사병
데얀
##리안
오더
##일상
찌들
##에어컨
기술인
무등
##상한
음지
고난도
거진
문무일
전목사
철제
호두
친밀
##킷
##운수
##소수
오갈
애경
군청
진드기
적재
##경매
##비에
##쟌
##안산
문헌
동백
상대국
옛다
조부
##묶
##추잡
##홀드
하이힐
얌전히
174
##통업
##드래곤
SKC
소모품
갓길
##북정
알아봐
몰라라
##악기
##유전자
주제넘
##으다
##텃밭
##끄러
게이버
##쉐리
통역사
##탈세
결석
뒷말
밝혀진다
##정수
올라타
떨쳐
##더라니
첨보
시한부
처치
보합세
##돌렸
호찌민
배영수
##혜주
지퍼
##당사
##무니
##쓰레
##완용
##답변
##진에
##그라운드
핵과
##사이드
##화질
##시바
##와요
##운동권
점마
격앙
함구
##봉지
이동한
이스타항공
브런치
포위
##검찰청
##공립
동방
웬수
도자
왕족
내비
박삼구
부득이
계실
##논쟁
힘냅시다
하리
통영시
##영외
휘날리
##폐업
##여행가
딸린
약식
취합
박소연
알려준
##더미
이녀
매점
~^^
니미럴
##포대
##동남아
해맑
##날려
트리오
천일염
##지체
인사동
샤이니
조부모
##주니어
##심상
팟캐스트
164
##폐가
막이
블루베리
박종훈
따돌림
최루탄
선취점
육사
심고
테헤란
뒤집어쓰
손순
불출석
스킨십
날아갈
한달전
잡힌다
야망
주옥
활동비
제트
난간
##는다니
##IS
##뎈ㅋㅋ
##@@
##이나라
다망
절하
##순천
##추석
##사무총장
##쌕
이종욱
##부천
204
사심
한국개발연구원
세라믹
도비
촌스럽
##지역구
취약점
배합
허름
엔젤
쾌락
##걔
##오직
한옥마을
맛깔
제스처
##보태
##전광훈
애나
조식
성씨
논객
가린
##사절단
##외상
##억장
백해무익
##중재
##㎝)
절전
##드릴게요
미역
일평균
##선언문
거시경제
##절약
안종범
##난이
사로잡힌
##무늬
살아간다
##倍
비웃음
탭
BJ
할인율
적색
옹졸
##깁
##갈이
유스
##껴야
원더걸스
배기량
##스러
##변태
모라
##깝을
##친문
##강수
모리
꾸며진다
배트맨
에르
선언문
남방
##문명
##대륙
선풍
다가섰
앞도
보통주
브라운관
##사이다
풍속
갈린다
##씨티
이어질지
미천
제끼
불거질
꾸린
답보
##고지
무효화
##공익
뽑아냈
비지니스
##PB
ok
욕함
##솜
인부
동두천시
뽀뽀
미워
대놓고
oecd
##버그
사자성어
재가
익힌
정의감
좌장
##軍
##진로
범람
웃음거리
##때로
천정부지
썰렁
ECB
소금물
##유엔
느껴야
##운지
##약물
##브레인
신격호
##본능
막힐
얼씬
빙구
주어졌
삼성엔지니어링
몰아붙이
장하나
광풍
##관병
나창
이재웅
##풉
반나절
##저수지
겸하
##세균
##난지
##워즈
비문
##레벨
##뢀
휘두른
530
징검다리
빌렸
법률안
상식선
김치냉장고
##스터디
끌어내릴
##가야
가려라
##분담금
눈도장
##방비
방재
CNS
초속
##도우
음대
지난날
섞이
김천시
##장판
둔치
군요
승강기
수매
고장난
촌놈
방독면
##영원
도요
이희호
##팰리스
##카이
전무후무
우경화
159
너비
##용시
느껴집니다
쓸까
##부대원
아사다
점막
##사이언스
##일지라도
얼치기
일률
남긴다
광광
##노사
살라
192
##이재용
##대대로
개눈깔
신시내티
자유자재
##아오
연사
##버드
세워져
증강현실
셔틀
아랫사람
오븐
하인
끌어올려
##보직
##거들
##아바타
동독
출연금
선동가
고초
##송도
불능
BS
##엥
앉혔
##종양
구덩이
헤헤
옹기
식초
부강
지어도
##맹박
로밍
월권
##의존도
쌍꺼풀
금천구
아성
##강하
열거
##충동
장차관
##껍질
들어와도
어려워진
속눈썹
성년
거닐
매춘부
##이드
대마초
##무라
##생김
망자
설계도
읽히
착실히
저당
##대대
##교양
##자유민주주의
엑스코
면책
이병규
조력
거느리
##보완
셈법
진공
##벗어나
창건
인스
##주의식
동해안
##셩
현지인
##중부
수난
한국가스공사
##계곡
사유지
초소
요한
부인의
원주시
감사패
한문
급파
신사동
구명조끼
아차
치장
인신
툭툭
##누른
애물단지
##병원장
소공동
##들려
##대첩
인신매매
##6500
패해
소방대원
##체불
고학년
올라온다
부끄러워서
끝자락
둘러본
바에
명퇴
김현중
여물
광훈
##道
TOP
ING
##정돈
쾌감
인천공항공사
구급대
배기가스
접해
끝난다
제조업체인
##변호인
##라마
##식별
##밥상
색소폰
깔깔
우전
비대칭
##123
##탈퇴
##구실
탁상공론
외친다
##툽
제프
시원시원
##실업자
할까봐
입학식
팻말
뱃길
제너럴
##세관
##뚝
##봬
총각
##트레인
대견
읍소
##org
그제서야
##만남
_
목구
가을철
누님
근거리
##백서
가르시아
##발식
하늘나라
와이드
640
##이슬람
종석
##쏠
##性
송정
##선충
기지개
잔해
상명하복
쏟아질
송년
온수
생겼으니
##멀쩡
놀림
##펀치
살아난
홈런왕
조문객
성우
강인
스타킹
##더기
거스
수줍
가르친다
뭇매
비통
쪽방
##비근
##만찬
내려다보
이승철
자로
신학
##생존
심술
유이
##통한다
숙면
민통
자른
조심히
전통주
찌른다
##문예
우스운
달통
##산소
구례
여차
되야지
##날짜
##농약
176
##에코
정읍
##사당
김황식
##무용단
##밝
꺼진
##해온
프라이빗
##늘어나
피시방
낮술
미끄러지
국제공항
제구
tk
##드린
##원고
파스텔
화들짝
##바친
##채납
상장지수
201
거듭났
부적응
협소
텐센트
가용
휩싸이
##팬티
##책임지
##net
황새
##쫑
##연주회
펭
##~'
##천배
어음
강습
볼링
##채소
라이더
노림수
무참히
자빠진
돈돈
##근육
넓이
더러움
발칵
공당
난처
인마
##란가
대차
격파
가중치
마셔야
##마셔
##역활
발사대
서대문
트윈
할인점
##나름
숫가락
대경
박사의
##박지원
dna
깨알
결기
열창
향유
악녀
서슴없이
##청도
신라호텔
아씨
pd
배신한
유채
내놔야
##역세
빅토리아
하동군
금지법
##유예
##부레
##싸이코
점입가경
불꽃놀이
나고야
무르익
박자
김세영
동의서
##부의장
##촉구
##市
##열린
즙
마셔라
부사
성탄절
좌국
양립
최민수
변방
구명
더없이
##가계
똥값
##쯔쯔
포맷
##렬
성벽
번다
김관영
시험지
##김정일
조의
##나락
LP
이용대
##대위
##필리핀
발제
##국물
##욕은
쑥대
##지켜라
##베드
##기술자
끄집
##부렀
심함
##홈피
관리법
##쌍도
재배치
부울
##폐수
교구
시시비비
얼굴마담
승강장
카누
##리원
##제명
##밸류
##데뷔
살아요
철들
코빼기
##주관
요일
추가경정예산
옥탑방
야단
##창문
##연아
뿜어내
상실감
고독사
거북이
기삿거리
잠든
종이컵
##대세
청담
전교생
거행
레즈
##치러
##코메디
서유럽
풋풋
##숙여
##주스
##셔츠
스러운
기본요금
##화장
가곡
##모리
##검새
##진흥회
선보인다고
##플렉스
##평택
상어
내공
아참
##막이
##거니와
가이
##석부
##힐스
##억만
##몰라서
초코파이
울릉
이성계
##금은
##철저
경도
법망
된다며
##모듈
1955
칼자루
쥑이
엄포
문제집
##이쁘
수입액
능통
##하반기
잡아떼
##유니클로
##솜씨
해조류
을지로
##병도
아오지탄광
마쳐
입조심
워치
외쳐라
다이노스
일러
##빌려
삼전
더러우
우성
동강
##윙
김현철
펑크
싯
잃어버렸
##찌그리
그기
##중기
##위상
##낀다
##나와야
금융업
일맥상통
공영주
겸한
들어감
부귀영화
봅슬레이
열량
가로수길
무모
철철
돌아볼
외국산
휠라
놓쳐
군국주의
포브스
기무
순전히
불어났
##량도
##샌
시레
뒷산
성악가
중의원
장대
벽지
##수색
##도저
동원령
##북송
몰려온다
제빵
총성
총학
##자급
가속도
NYT
김부선
움직인
화이
##수퍼
##각종
속물
나지완
225
167
젓갈
460
중공업
##간신
나빴
연회비
들켰
##안양
올랑드
##낸다는
살펴본
영재교육
상암
정신없이
##스메
##때린
한국감정원
##증과
##검정
##지킬
주채
##만유
임야
수하
보내왔
감사히
분말
##봉의
데려왔
패널로
내줘
들릴
##판다
시부모
##다더만
공효진
주거비
최민희
아방궁
대찬
새리
연령층
아사
선선
##DC
##특별시
세슘
고아원
한성
갈라진
늦출
지선
쏜다
삼척동자
유정
불감증
##래미
노인정
##후군
영악
불났
스포티지
제원
매듭
##라디
세워졌
유토피아
코르
심증
마두로
1910
워런
아이언맨
개나리
##메인
어부
##晋
##적한
민요
세태
쏘렌토
고용주
재림
##동당
##곳간
할렐루야
이치로
메운
##구대
세미
쏘울
수기
개주
연발
육안
제방
해먹
예탁
성큼
양강
갈팡질팡
오합지졸
피어나
미국식
목포시
##인문
##공판
풍수
지미
그럴싸하
183
벌어먹
1919
##경화
레더
최적화
스노보드
깃든
##마늘
후발
엄밀히
##용산
##종식
순응
182
##테라
듀엣
입영
##름
광화
얌전
자시
##편집
패배자
완충
아련
문도
비협조
##충분
##뜬
가셔야
##엽
알람
##무너지
##도인
실격
##불량자
강연회
##사죄
구이
강인한
철강재
만물
만화책
신데렐라
##움직이
이온
여관
뒤집혔
휩쓸리
중형차
장학사
본고장
##나세
##잔데
이토
코피
풀가동
부를
후원회
물러설
##맺
걸으면
띤
활기찬
##小
호봉
약값
##말세
##라고는
바꿔야지
나두
CC
스트레이트
고혈
##평의
발기부전
타이완
고철
##경찰관
시스루
!!!!!!!
빔
잔업
사형수
##메라
아시아인
뭉가는
##탈락
병살타
##보사
본명
강동원
타일
유역
##스탠리
##개장
##동조
족족
뿌려라
공포감
병합
##아쉽
안테나
복통
총탄
까칠
불쏘시개
바비
##띄
##알파
헛된
쥐죽
용쓰
어련
변변
##구별
계양구
풀코스
비운
##클라우드
피한
오간
주교
작업자
##사직
막혀서
우도
불모지
강모
바래요
몰랑
선봉장
혼탁
##민영화
이네
쇼맨
와이어
해맞이
##공법
규범
분풀이
감흥
손아귀
심리전
##소린가
##앰
##마감
여명
##연방
장하
##쨋
보군
망막
신동엽
고창
코칭
식견
총통
당무
##지형
##전범
iOS
##도면
##초월
##넼ㅋㅋㅋ
장안
제모
양방향
닭장
##을가
반주
굴레
중심축
값어치
학연
때려죽이
##펌프
##발상
조수석
이웃집
##리라는
##출원
허가제
밧줄
가책
척이
구찌
##치고
산문
덕수궁
토머스
젤리
##켐
파우
정책금융
뒤따르
##후원
##터리
쥐잡
되살아나
씀씀이
찌푸리
전원주택
성행위
불임
##해와
파운드
색안경
썻
##향이
연약
1954
잘랐
##견의
187
매달렸
호락호락
코걸이
##래냐
규슈
##갯
통령
##뎃
생쥐
##체인지
이기주의자
밀양시
마르크스
특공대
이방인
뒤집히
변치
연구회
들여와
##?.
440
이영표
오색
##페이스
국방위
부총재
송편
졸부
즐긴
기동
회장단
##주둥
이영애
휘젓
전해져
##테니스
영화인
부익부
##체고
##치즈
##분자
존폐
##반박
동일시
사법연수원
패치
한가득
##서방
작두
##는다더니
##힘든데
점쳐진다
트램
자구책
향해서
임차료
##소환제
##반미
##세계인
##展
뒷목
붕어빵
알파벳
연희
품앗이
잡화
##리티
은하
야식
나빠질
##기미
##천과
타순
털려
자금력
방파제
##운하
가감
##펌
##재선
##라로
오싹
다이렉트
찔려
##백성
그람
그려져
뒷골목
##연녀
비하인드
##피의자
##행렬
참외
통구이
크리스탈
탐나
##졌으며
스니커즈
전치
드라마틱
연놈
갈려
털렸
나성범
전관
환대
목전
냉소
##느니라
마리오
돼버렸
문진
##디스
뇌관
정용진
빙하
정월
교촌
홈피
##주액
비전문가
공멸
도독
짤릴
##박혀서
우숩
양재동
격식
사절
초원
광주비엔날레
유창
유품
의로운
석연
##하천
인색
도농
구기
##WBC
##후기
##행도
##쉑
홍가
##지그래
##판도
은어
##자란
##던대
은행나무
않아
선친
물어볼
밤길
덕택
담배꽁초
##기려
범벅
##더이다
철조망
##노리
##왠
씌워서
470
##다로
도적놈
##본보
묘수
발화
##자루
##제정
경시
##이요
##으셔
통찰
가동이
산간
소실
골칫거리
제쳤
맹비난
##교통사고
삼족
걸래
결속
##밤중
숯
##닉스
빼앗겼
스릴
맛본
##연료전지
##그리스
간간이
종단
난징
원균
방사장
올레길
집들이
현대아산
출가
##블럭
안절부절
##자던
오차
서희
잠기
##公
##수에
##상주
아름다워
통념
대청소
##리전
찬성표
##손녀
##좇
##우먼
오심
2040
수감자
##점거
본진
##디만
닉네임
피의
ㅃ
신정
입학생
베니스
##발짝
MMORPG
##니즘
정대협
##젊은이
롤러코스터
권위자
교문
소머리
##참모총장
이실직고
깝깝
##걸래
약했
##크레인
꿰매
##멸망
##시보
##안경
연호
##웃사랑
혹여
##차립시다
배열
테너
##한계
파안대소
##들어올
상무위원
삼송
##폐국
찰리
에드워드
대관
꼬여
##개발비
패시브
##수자
급발진
##평창동
재력
범칙금
##충과
파렴치범
##DNA
동화책
구설
쏴도
##GW
##려고요
소시지
왔으며
미뤄졌
피랍
불어오
축포
끽소리
##전인
관리인
구본무
##한두
고민거리
현찰
##누설
##능정
시덥
즐거웠
급조
##닥쳐
##정착
모씨
OB
원산
조롱거리
흉흉
##갔다오
##반고
순종
괴멸
현아
매니
##춰
##이성
##예술단
연례
로페즈
징그러운
안기부
패가망신
##ㆍ군
두텁
##만났
540
산맥
최상급
기뻐했
한솥밥
생산지
숙박비
##여경
때려도
##석춘
운석
원활히
##취량
남겨진
##캉
부쳐
##산다는
##증말
풍물
좌전
거물급
nc
사쿠라
지랄병
놀러갔
##주연
##기생
##심상정
영천시
살상
눈속임
돈벌레
월마트
##커버
향응
쇼나
체납액
##배제
새이
앞질렀
수재
##터스
난도
##중소
열자
##더더
체증
##수배
특별상
##스페셜
##LNG
국회의사당
##라야지
##..;;
##유보
체리
##변수
빼곡
가금
시피
하객
우선주
##인감
##조센징
공의
아바
다이어리
일문일답
짜여진
##팔릴
##신세계
박정권
##모형
소령
착실
지바
천재지변
##나면
휘성
##원내대표
조희팔
다각도
정홍원
박주선
169
부마
##자면서
달려왔
벤틀리
하이트
콤팩트
##EBS
대한제국
##리다
##평양
##제주도
구충제
야시장
건축비
##베인
간나
무서
뭉가야
왕위
##간이
노랫말
##대리점
##발령
171
유니버설
##래미안
##나와요
잡티
떠올라
전산망
육식
한정식
귀금속
##관사
버텨라
우글우글
자동변속기
##아서다
발도
삼일절
어록
##방행
세무서
압박감
##우와
##엘지
벌어들이
##해운대
##리얼미터
다녀서
홀딱
##mL
공시가
##표창
옥살
데크
폭죽
##你
##주부
결정지
무직
##결재
사기질
##380
##내신
개인사
##퇴임
일주
##지산
무너뜨린
##레기네
빈익빈
사가
상술
포켓몬
파벌
극과
##8500
##검열
560
ebs
밸류
##분류
산후
번트
##NLL
리턴
##컨트롤
##국채
전인지
##양보
##다잖아요
예선전
배의
침체기
##구치소
진흙
막다른
불러들이
오스카
홍석천
##때려잡
##생과
봐선
스핀
##래들
병기
말싸움
어림없
찾아갈
##거제
골격
미룬
장황
문제아
심심찮
솔로몬
산천어
일파만파
함부르크
신동
##그럴까
멸시
병자호란
다닌다고
저곳
다뤄야
호시탐탐
밸브
값비싼
퇴계
속살
굿판
하강
##연세대
205
##지척
싱글벙글
천왕
일방통행
##긍
베타
##장아
원문
호러
뒤처지
걸릴까
혼혈
범어
깐깐
언론계
송년회
풀려났
##덜덜
##진분
##가관
문맹
문태종
##억제
알파인
##~~~!!!!
아쉬워했
##운사
번져
연민
야구단
##실래요
##아휴
166
##??????????
196
사교
##병실
##정신병
얽매이
명제
시킨다고
##!!!!!!!!!!!!
허풍
지명자
##닛산
뒤숭숭
이종석
풍습
##성금
##치워
합헌
##세미
배변
편찬
봐준
노홍철
##베이스
경계선
모아진다
포대
돌아다녀
나선다고
아첨
풍족
펴내
안전벨트
##백조
##할당
##양대
능멸
뛰어놀
##가사
##까먹
얘긴데
198
간사인
##SOC
188
##막장
##바르셀로나
##정립
탕탕
이주열
모신
##인건
매미
기업공개
어라
##................
##이정부
대니
밝혀왔
괘변
인슐린
포터
충무공
혁신안
거미
##관리원
건대
셰익스피어
199
쌀밥
##커뮤니티
객기
뭥미
답안
##휴양
밀릴
대추
##불렀
##강물
시금치
엄단
##맞춰
지그
진통제
됐으며
살폈
뻥뻥
##주먹
##만호
##공여
##n
##
비좁
쬐
빼곡히
체구
##조류
##뚜껑
스토킹
극좌파
보디
정론
감사원장
타미
돈다
##제비
서문
##기념사업
돌려놓
##오지마
정형외과
##할려구
단조
##연관
마중
##추악
맞잡
친족
##증식
##추문
##부사장
임했
##이스코
인덕션
##윤석렬
##월경
봄바람
기관사
가랭이
급진
길이길이
여시
깜빡
각계각층
집배원
메뚜기
톈진
##뻗
지피
LTV
##고위
##폐간
인강
##노령
부딪혔
폭격기
##여왕
##죵
실소
전자레인지
##드라이브
173
순사
##대호
관심거리
##포구
##KDI
쌍용건설
##발부
에바
##으셔서
##KTX
위드
빙의
##신사
제시카
구국
처다보
억새
##여지
삼국지
고은
##관리비
슬금슬금
무적
##오죽
개불
##재킷
8500
극적
선결
웰컴
역류
강속구
##레일
데이비스
아소
이승현
바코드
지참
뒤통수치
신바람
쌈짓돈
##칠까
##듀스
개선책
##키운
##미인
미칠지
북적
물렸
뿌리치
극우파
##질려고
##경유
##야간
##킴
##끓
북침
요상한
파나
넵
##하트
깍아내리
도립
##신기록
계셔서
칫솔
4800
구세주
득실대
##급하
서머
##장녀
##챙피
갑작스레
무공
피라미드
##운전사
띄우기
친선
휘둘러
뒹굴
##곳곳
프랑스어
##부적응
이베이
크라
##조도
얼룩진
##心
##金
You
하수도
종묘
아우라
양다리
저널
평균치
미신
까맣
독촉
##수협
독기
행한
시시
코너킥
대교
뿌릴
##자민
##헌다
벅차
##1600
살맛
가부장
배차
##정하
##잖소
광역버스
괴벨스
독차지
칭호
##편도
냉연
전처
##뺄
##기판
193
주눅
##산군
이경규
##％)
##인출
##냅
팔뚝
ㅇㅇㅇ
뒤돌
데려온
눈총
저걸로
##이식
정례회
##점주
맛난
특파원
김승연
##착하
##-----
감칠맛
##ㆍ일
##성찰
걸어라
##구해
##티나
와이번스
뽑혀
웨이
전병헌
##실행
면책특권
##복싱
뻘건
##메이커
브릭스
유조선
##""
정우택
##마마
##보수당
이만수
이정수
색조
불협화음
조코비치
##완성
얼리
김성주
##끔찍
눈독
나빠서
특설
견적
##전문지
##간판
##액도
수의사
가엾
##무현
레버쿠젠
채워야
탈핵
빤히
프라이버시
##씌
##깨물
프레스
곶
##무상급식
아늑
184
자책
추계
##개한
놀래
명문화
후벼
오디
##정유라
조던
재벌가
##전시장
들러붙
합격률
##점퍼
본드
##씨네
카카
##메가
이용섭
평화상
고기압
SPA
온건
해약
##줫
쫄따구
원샷
영조
벌거벗
얼렁뚱땅
최성해
숙박업소
##시발
##부문장
올라올
인천국제공항공사
원어
알프스
이개
##천에
##동일
me
박히
남불
##역도
루키
민방위
점철
##어주
##사표
##니스트
줄타기
##박살나
쪼그라들
중앙지
##성시
병폐
##이상한
##못함
더딘
우스워
돌기
금오
소비세
연고지
##티스
봉우리
세전
조신
##문다
어눌
튀니지
##비야
##줬으니
##기행
##잰
간교
##스파
미남
경실련
말릴
가한
161
강추위
근현
##경영학
커트
암각화
노후화
거룩
김영환
풀린다
동내
바뀜
지방비
##몰의
주먹구구식
순국선열
꾸밀
유영철
##불러서
물티슈
##탐사
체르노빌
괸
스미
파노라마
판다고
산란
저물
##근본
태워서
서양인
옐로우
돌아
##~~~~~~~~~~~
진달래
##다방
BIFF
##점프
집합체
날아다니
##누적
##진단서
NSC
##실체
쭈
뇌혈관
끌어올리기
더미
절레절레
##기록관
##사후
##㎎
##매력
이사로
터트린
늘어남
##듭시다
##막혀서
##기록물
##?!!!
##리언
질식
##시사
##끔
쌕
산악인
공수부대
나들목
중입니다
곱창
태화
하지원
신공
##지켜보
법질서
김동현
##생계비
김진
먹혔
장미란
김장훈
윤모
##하원
##분란
부직포
##본다는
##영회
바보짓
운동가
북새통
번창
##엉망
##분여
카이
최상
글러브
줄려면
##뚫
달의
휴가지
보호법
##구지
##쪽발이
##앙탄
든다고
VOD
##고양
##입사
##튀기
정중
##승진
높인다는
임종
##씁니다
##1800
소임
수필
개코
판권
데로
득점력
##런던
다이얼
혈전
##신종
제과
가장이
국인
경례
각목
##영이
프리우스
##바꿔서
동양그룹
##KLPGA
조찬
##나경
##라임
급등세
우민
##언젠가
##닐슨
##결합
##범인
저커버그
##무지
하나다
쉬울
지닌다
증산
##야크
정중히
차암
##감찰관
요망
202
구술
##봣자
##빵이
일마
비둘기
조직폭력배
치달
물려줄
명기
전태일
##배추
무수히
HSBC
액면
라마
김정민
거니
유야무야
골든글러브
기다립니다
코리
##입지
연평
##장자연
제비
##부야
제일기획
공심
DC
##1400
##약관
경산시
고든
서커스
스틸러스
안무가
치뤄
##필수
##kbs
문어대가리
AT
부추겼
황희
##동반자
이재현
극장가
굿바이
밥통
체육회
NFC
이승환
유니세프
지이
숨결
##됫
208
코픽스
여중
노이
인과
개인기
버즈
##고래
응급처치
너덜
##판국
예치
자타
##시선
자판
##토탈
총독
##매경
##곡선
자동차세
##고환
달려오
전해진
의연
야한
쳐올리
마는
##임시
##소상
분쇄
리플
돌잔치
##수감
##달하
방패막이
##훌륭
##지지층
1959
유희
강매
자망
##지났
외계
##초대
감은
밀러
##라느니
그럴듯하게
매해
전모
쌉
Mbc
男
WSJ
##나왓
vip
힘껏
##황금
##뎀
조응천
악하
이르지
판별
##국방부
에르메스
태평성대
지존
##순서
상법
순번
십수
청기와
앞세워서
JYJ
당연지사
##개척
유년
빗장
피나
뒷거래
거지꼴
지스타
불쑥
자다
내려도
국난
##뭉쳐
통감
##북미
실랑이
데뷔작
북카페
##명칭
국어사전
##손자
미아
##뭉치
해트
수납공간
실력자
부잣집
##우로
어플리케이션
뚫려
##룹
개꼴
기내식
고흥군
보여줌
##한미
##연말
##법칙
##고무
##쪼개
응당
##드실
난개발
##한편
힌트
##bp
검소
##공산주의자
##갈라
##중국적
##어쩜
챙겨서
우간다
하급
비쌌
데려와서
광어
1958
부숴
##사제
결의문
조지아
대백
##재판장
##行
안치
빙빙
만수무강
##사살
간파
##잡혀
##대구경북
빨라질
동시대
수탁
기폭제
##흥청
도안
##쿤
스파이더맨
잡수
개사
##503
##말투
가계부
요람
일석
##이랬
빠트리
불알
낙원
막아주
MWC
야유
##간탄
##허리
연제
터치스크린
헬리콥터
기념사진
따돌렸
젖소
아십니까
떨구
재투자
롤러
기력
두개골
대웅
##나타나
##아악
##호법
평평
ARS
불량품
용접공
다도
둥둥
##엮
한당
지론
변두리
##참전
요법
틈새시장
겁주
포장지
##드러나
스퀘어
##하차
##륙
##다도
##기상
답방
##성지
박해
##적정
따져서
벌여야
##종결
오신
임원진
주옥같
징하
멸족
죽도
주원
자필
도급
순찰차
친자
낙하
융통
##IOC
##상당
세상사
on
딸랑딸랑
##어죽
에너지원
##몸통
##여종
답장
##쵸
##한민
이중국
##벙벙
수행평가
갈릴
상징물
성창호
페어웨이
악연
임태희
수그러들
당구
영도구
목장
제이슨
미얀
드러눕
##공군
빙수
만드세요
공작원
바부
렛츠
##강신
##밴
에콰도르
가리킨다
계산기
규율
##산하
어찌할꼬
##면부
기원전
##노역
미소금융
##관위
##이때
차용
대산
노컷뉴스
##센서스
탑승자
##풍년
상견례
##박쥐
표상
##춰라
##소와
조미료
어려워서
##맑
씨제이
##충당
독극물
밀어내기
사인회
##FT
##간나
적인
##다름
돌아다닐
변절
##누만
##~..
염불
##래서
능욕
##자식이
##~~???
위세
추장
정의선
회당
비데
##떳떳
##그런지
##본지
아라
꺾였
흥정
##입자
조경태
골짜기
##..'
음질
##강령
송아지
잡아냈
간극
##지도층
전봇대
브루나이
감염원
##한게
흩어지
해인
만신창
서두
풀어냈
바쁠
디렉터
가마솥
끼우
##1300
꽃미남
익스
메트로
병명
제값
아무짝
##작두
악보
##인임
##온난
병아리
하드만
녹색당
교외
##아이디어
수저
##160
밝기
연거푸
뒷걸음질
##로켓
##순수
##깽깽이
단말
시추
출금
##단말기
저스틴
부산물
실례
비이성
몰라보
자작곡
제이티
##글라스
헤인즈
건드린
입출금
늘린다는
풍긴다
##김무성
갈일
미우
##트렌드
끊겨
백조
##세무
##사용료
ESPN
혜성
##다움
이정재
기막히
##즐기
격한
##시범
##석과
##브라
##오바마
만무
정치학
##공백
##총국
##重
##버터
점치
##5500
교신
##된다니까
이완
출루율
공과금
와이브로
1949
비닐봉지
##동탄
##황이
##여신
오리지날
쫄려
카를로스
##편법
거미줄
##역이
착복
##본질
##뿌려
마그네슘
##헤드
##렐
베젤
성전
졌으면
옷장
불치병
연산군
현미경
##취지
송장
돗자리
##노라면
떠받드
골방
정반
퇴근길
203
인력난
##궤도
몰러
급한가
당찬
윤장현
수포
##ELS
##종대
마사회
서핑
어허
##140
조원태
음압
##임금제
##쌌
##졸개
전열
##마들
난조
##레알
어젠
봉기
##걸린다
이만
##절반
신도가
##POP
메웠
##하임
우천
분다
마네
윤석
##걸림
보선
##브로
tbs
평민
포승줄
##쥔
김승현
##변신
후송
사발
정년퇴직
ㅊㅊ
쾌차
심취
매달린
최면
##골라
살돈
쫓겨난
겔
명량
시킬려고
##누군가
옥스퍼드
옮겨져
##선승
##세리
보균자
신봉자
태어났으면
쫒겨나
희소식
나뭇가지
치울
부화뇌동
##랏다
구석기
조잡
안전망
노심초사
##분산
김지석
축전
호강
##해보인다
대에
말끔
리오넬
한국전력공사
억측
오질
##한숨
널린
##니당
사복
##운항
성인군자
##넉
##테크놀로지
재봉틀
손예진
냉난방
불미
##주둔
##교육장
김주찬
##컸
##떡검
##동창
드나드
파묻
##항로
##고르
쏠린
##DMZ
고지서
유심
요구르트
##포도
##東
파고드
이민정
말뚝
주나
활약상
명수
물어내
##전할
뱅킹
일석이조
말다툼
사채업자
##쓸모
선종
비바람
##쪽발
강직
빨라졌
256
##관절염
쌈지
문고리
말소
자생력
시료
완쾌
뚤린
도랏
러프
##중처
강행군
##선출
김광
결정력
##아픔
보여도
히든
원빈
도사
전곡
경남대
다케시마
1956
총감독
손쉬운
알려줘야
타나
조진
##간아
자이
as
상놈
업로드
분홍색
##보로
##관리도
##복이
##자개
##랬더니
초임
나타낸다
##파주
동년배
##발주자
내연
꿍꿍이
빠이
##여력
##개설
페트병
##중은
각박
루마니아
정동
캠리
##450
매점매석
##강경
쇠락
송은범
##양념
무형문화재
영사관
형의
##매너
비빌
헷
##수시
부와
짱구
모노레일
매개체
작아지
암흑
의미심장
알린다
##세비
하층민
##애쓴다
중장비
왕좌
늘어선
옮긴다
청개구리
##들여서
젖국
땅바닥
부주석
##한다네
컬럼비아
##비타민
나토
##세수
고척
배달원
##아자
##벌구
232
현대홈쇼핑
코스타리카
니코틴
##육갑
##영혼
연천군
3400
과수
한낮
조범현
비스트
1946
##정시
노소영
구먼
도시민
##반사
금괴
##계절
##밉
담벼락
도가니
##보낸다
##파이팅
케이비
암벽
##수제
쪄
##할게
유추
필터링
메기
##저걸
조적조
선과
##작물
##카트
따라올
지한
##쓰이
쓰러질
콧대
소장품
채워졌
스케이팅
##싱가포르
QPR
##주단
일궈낸
근무지
접대부
쌈박질
감식
정병국
수액
##스테이
광부
##시험장
##무도
병역면제
출발선
현제
극형
푼다
감자탕
예방법
울진군
단발
##볶
좀벌레
서럽
##로맨스
치웠
##🐶
금정구
백의
##찡
##챔피
차승원
산만
한해서
평지
사격장
##졋다
간악
쳐죽이
사물놀이
이코노미
광동
진학률
##수기
왁
가차없이
넘어왔
##갤
##미디
짱나
##살아가
##병역
##바뀔
포워드
파랑
스냅
곤두박질
##모여서
티웨이항공
옐로
189
고득점
김종국
특수강
됀
상등
도예
##다녀오
엮인
##문화제
##이대로
철딱서니
##무로
족구
##무릎
##조합원
스탠스
콘서트홀
장모님
카디건
도면
##회견장
작품상
##생계
견과
##건조
##田
사면초가
알래스카
시종
207
미로
빌리지
벗겨지
##슝
물방울
점자
##1980
##척도
##고정
미화원
넓힐
##구체
온난
##,.
720
##상륙작전
390
원위치
아인슈타인
유모
창시자
##읍성
##완전히
##박도
##마가
굴종
##치만
의정비
중흥
바야흐로
카시트
요충지
동식물
등불
다이
##먹거리
##체중
##증여
속도전
950
원해
##pc
회항
대적
숙대
모야
##김정숙
##관한
ai
##초과
잔디밭
경춘선
세자
군경
연착륙
식빵
장지
덕아웃
어메이징
##세자
1951
##예탁
관급
by
##끌기
최고액
정신대
대통령상
이래라저래라
은둔
정력
가져와서
##건너갔
슬리퍼
강산
간호학
말끝
발병률
친필
##내려놓
수술비
달째
과민
마신다
HP
워커힐
##시러
두유
베푸
서독
하림
##기전
씌운
모디
처방전
슬퍼
보호막
아껴서
계몽
임명권자
뉴스룸
걸음마
박범계
워리어
물망
김일
목도
현저
##해역
휘발
몰아세우
##틀니
##주름
원목
##빙상
브렌트
486
추수
자연산
##나도
기와
##촉
##따라서
##잠식
유희관
SKY
위너
웃겨요
안갯속
선천
부릅뜨
병가
##그만두
바자회
##박근
##저능아
뇌세포
극악
헌데
대야
##돌린
##으려니
혈서
졸음
다우존스
##시장법
비루
생방
느티나무
핵전쟁
배어
유식
철탑
예금보험공사
참가국
꺼낼
##악인
문화예술
진종오
환희
프랑스인
##심의위
지프
고성장
##모닝
##동굴
엇비슷
포구
맘고생
오존
##지고
엽서
주걱턱
잔치국수
금정
국선
4200
자임
광택
장차
##ㆍ여
한술
##본점
기말고사
완결
##%+
코미
리빙
안다면
##합치
##나발
씁니다
허황
##나비
##칩니다
지켜줘야
##외구
트랙터
미켈슨
소강
토털
##랍니까
##국익
웬지
moon
##수량
304
다시마
미네르바
둘러대
두산건설
##리더십
##소외
##어쩌구
##내려와라
끌려간
광견병
하두
자전
그려진다
선불
##꼰
눈부시
부담없이
##몰래
노다
명만
냉혹
페스트
##춤추
##실제로
##환경청
혈투
질렸
웃길
##이언주
##수사관
개취
박테리아
비즈
민가
##박힌
노려볼
##성폭력
##성역
선서
희화
경축
뺏어가
##江
##모니터
##수영장
컴투스
엄히
##끗
하여간에
의례
KTB
##국산
##버릴까
깨져야
##망해서
나자
##부심
##볼리
궐기
##겨우
눈까리
##장갑
내림
##통신부
##소송법
로드리게스
걸려들
##망해도
##니야
겐세이
종근당
이겨서
탁자
짱돌
공장장
윗물
##가람
용광로
루이비통
##드론
쌍판대기
##이끼
중국집
##막스
일가견
토론자
##복면
촌철살인
##미포
백남준
##멍멍
최시중
##개비
병시
속좁
오르막
피해갈
놔야
##그만큼
##~~^
변덕
발짝
사우
##먼데
##우체국
리치
피카소
##렵니다
##는냐
가정집
마음대로
##켠
선덜랜드
곡이
족히
공공연히
##마야
레인저스
동승
꽃가루
##무서워서
복귀전
통이
박종철
징병제
##가족의
폴드
돈세탁
시화
민첩
##2001
신민
##텐가
##빠라
안티에이징
##🖕
순도
트렌치코트
드실
핫팬츠
##야권
##잡혔
라돈
##롯
국민감정
체지방
소기업
##여유
참기
##일부러
당함
##대부
염기훈
이수근
##젠더
유부녀
내맘대로
##우회
현관문
모로코
캐피털
건장
##가죽
탐내
기겁
비젼
동사
##교육부
집념
범퍼
박진감
##처서
항시
스완지
##퍼스트
반동
해양경찰
음해
쓸려고
레포츠
##날조
##강세
맘놓
헛다리
장려금
##우방
기괴
##이명
##간염
박주
써요
밀정
창녕군
1957
건방
이름난
##파산
공전
이어가기
식전
##는감
김동주
근사
##마른
푸대접
따가운
홈런포
##가난
이이
##스킨
##보이스
글라스
용암
##말살
##레이트
##360
부질없
##모가
##경계
일으켜서
역겨우
##임대료
김민희
청자
##잭
밝혀야지
충치
마스코트
야금야금
유니온
경조사
대납
##이비
##챗
##신안
##토건
##지주사
배고픔
온열
을사오적
다가와
##조종
매거진
양의지
종교계
##날까봐
##획정
허재
##도립
##전해
호실
##도가
재동
##😠
수족관
홍보가
연출자
##9500
모레
대유행
##🤬
거리낌
성주군
179
아셨
##타석
우표
윤종신
소년원
##각이
##👍👍👍
##특공대
##거울
향배
체인점
##승마
귀여워
홀인원
아랫
##활수
거친다
##섯
춘장
방만
##으나마나
밑도
시프트
김동철
놀러가
모셔야
##짚
##부역자
춘추
전정
게이머
변제
임진강
209
맥아더
동양증권
##지휘자
이케
##융자
몽니
채굴
##싱이
China
미정
수레
##방망이
닛케이
##PF
섭렵
수공
##마쇼
##ㅡㅡㅋ
##긍정
외장
##부치
##증언
##렬아
##캐릭터
수역
##다비
##학군
##멕시코
##치안
찔려서
팽팽히
##거리의
차차
##프린팅
##잔인
마동석
지코
울고불
##차려요
사시노
金
감춘
증편
윤창중
휘청거리
청소부
군사분계선
##착용
연주가
##여요
##오소리
자위질
상수원
골재
백억
##프렌즈
##라디오스타
중사
깜둥이
진짜로
민원실
광활
헤아려
##아나운서
##썪
안정환
매겨
숍
창동
보양
가운
##호당
누려
정유미
##도마
##나감
##통영
어지럼증
현대로템
나빠진
##유전
##파동
거져
##풍경
자란다
##정자
정시로
##750
##자발
##딱딱
박박
##지오
목수
##냉장고
부러
##라잉
##금호
영호남
레일
가압류
볼멘소리
객사
웩
돌려보냈
여세
긴급회의
연료비
근교
##출액
오클랜드
헛되
##하이브리드
묵묵부답
##어기
저술
에스프레소
##하이텍
181
헛스윙
##솔라
초록색
석상
다닥다닥
문태영
폐막식
##날지
밀반입
후안
조심스레
##챠
돌팔이
봉제
##파에
정거장
감미
##간데
##석동
하얼빈
정한다
여제
경부선
어자
##궤
가칭
##'"
가려진
힘든가
땜질
특판
##쏜
부호
##미티
동인
김유정
##불명
빛낸
1952
정해야
파시스트
기행
수선
##페달
뻣뻣
##해두
골인
피로도
맹타
감싼
쉿
##진해
독학
##퓨
##파출소
##뜨거운
##장어
행방불명
어려워진다
##학사
김시진
뇌사
##욕구
##음주운전
나달
대학살
##다나
시음
라떼
##밀리
##대구시
반인륜
헤어졌
틸러
넘겨야
##성산
##해봐요
드넓
##데려가
고찰
##반발
바란
생육
##려고만
아웃소싱
드려야
##흉내
##뻔하
김준호
부릅니다
닥쳤
딱한
어중간
났으면
##박람
따온
푼수
함몰
##소추
지껄일
복날
##권고
亞
학습지
헤아릴
부활절
바이든
도레이
##다라고
김인식
##비료
들개
##조나
준게
떠다니
결례
##매제
##산점
차이나타운
쫓아다니
태웠
##수백
쌍수
준다는데
늦장
몸뚱아리
배팅
예타
틀림없이
직업훈련
3700
##솨
##포수
카페베네
##루프
##초청
백선엽
안부
ID
통계도
음력
##개와
남달랐
사고나
##시일
##퉤퉤
인면수심
##명아
조마조마
##낙동강
유아인
##%~
##주적
전달식
드셔
변칙
위증죄
꾀병
주례
##수신
백의종군
##바디
차안
##모조리
##스테이션
##케이블카
##천변
동대구
아파하
만을
할껄
bts
활활
##광명
신뢰감
##퍼다
##역서
교동
재소자
##아세안
XXX
놔라
대역죄
븅아
안치홍
레이디스
소방방
능하
떠밀려
황홀
##론가
덜덜
주꾸미
밀려난
생중
이룬
##육감
동부그룹
속속들이
농업용수
백범
뭉게
묻힐
벌린
포렌식
투표지
##기다려
쏙쏙
이판사판
낙인찍
재료비
##입주
##어떠
토탈
##행량
텄
##은가요
헝
대성공
광란
##무치
##주인공
최재성
타노스
##천하
##자여
##단들
아구
동갑
장고
자살자
어두워
##애국자
쏴서
털어먹
농수산
서툰
찬찬히
##유일
##오바
란다
##마취
룸살롱
NASA
##해설
##므니다
##송파
대기실
산양
펼쳐야
##정연
만개
##소각
거버넌스
홍상수
사무라이
탈영
##기득권
##부츠
##호골
강북구
이자스민
핫라인
##당게
재래식
김기덕
##공유제
##인건비
##렬이
복음
CG
연을
이브
페널티킥을
출중
##그랜드
국산품
수양
무바라크
##경전철
##ㅌㅌ
##맹세
##산행
왕십리
##하리
곽노현
서술형
두른
##컨데
몰지각
마소
빨간불이
인포
##콩쿠르
##신규
김현아
##고라도
심사숙고
##어판
암탉
##편가르
##꼈
다가갈
따윈
##부렸
##보냅니다
##련관
낙동
건너뛰
밝혀져야
인문계
뇌리
##나온다고
##스피드
##에이스
착공식
##킴벌리
내보낼
##세모
일희일비
거머쥔
슬라이딩
##면도
SAT
마마
##제하
잔다르크
타이트
파쇄
칼바람
떠든
차감
레이어드
박준영
그제야
##에버랜드
여전사
폐단
##지구대
##광산
정약용
마필
태경
구스
##담합
##무형문화재
간통
##커서
최후통첩
덜컥
단층
타계
인터폴
털기
지조
##가옥
교무
농산
흠결
##시간대
관용차
밀어준
##회용
부조
모서리
강의료
기어가
한약재
모회사
난폭운전
##수인
##주최
신통
세무사
그래두
##좀비
##나주
밑바탕
##지성
단신
##애도
양배추
와야지
==
##망해야
거느린
촉박
떨어뜨렸
클라라
몰려든
케이프
경장
##멀티
차범근
영유
걱정하지마
##임신
벌주
건너갔
대졸자
라틴
장녀
화도
책방
탈락자
연작
절충
##선수촌
들르
##어두
##직시
짜임새
책임졌
##항공우주
바라봤
김희선
복이
##순은
##와이프
##다치
##앙식
연습장
윤지
재미난
##베이비
얄밉
##호만
벅찬
중퇴
##억지
얼씨구
##한남
##주대
러시앤캐시
##리수
고인돌
신문지
##립시
##때린다
멎
##조이
초호
임수경
수수방관
##공표
##칫
술잔
징집
##배정
##배경
모션
##당첨
##실정
동률
##경심
포장마차
개천절
강남이
떼거리
##껴도
교습
파나마
앞면
성내
나왔으니
이상주
차린다
치우쳐
익혔
나뭇잎
유재학
##비방
광안리
천불
강해졌
부러웠
희소성
떨어트리
##악단
알량
금상첨화
박살난
##밀의
##정예
##타이틀
##운임
조강
##태양
##여기저기
스낵
예비비
스펙트럼
김경태
비아냥거리
아이비
표독
??????
암말도
삼화
재처리
수비력
##황기
되묻
주안점
옐런
윗집
##성운
온다면
엄한데
진정서
도사리
##先
이인제
고모부
##러버
재의
##우당
벌점
금기
##파면
실업팀
##요정
##트위터
사탕발림
윤동주
고현정
##짬뽕
##쉬운
농축산물
윌슨
족하
울화
##감당
신용보증기금
철쭉
꽃게
헐리우드
##기록원
홀로그램
원투
아서
볼리비아
친딸
형형색색
마십시오
##일산
군장
무주
정대현
홍익
설악
태조
축인
##神
##동문
##날개
##AS
칼럼니스트
휴게실
年
##상표
투숙
모택동
달라져
추사
##노동청
촉매
무협
##윤의
##셀프
테이저
고스
##헤지
##9900
민속놀이
갤러
##미들
언저리
##%'
##피플
##급과
##리라고
##검색어
##뭇
##해군
끌리
##우동
##지세
##수송
급매물
세르비아
매스
퀀텀
치룰
##닌깐
삼청동
##WTI
오미자
쥘
##이브
##배후
니콘
낭떠러지
항공업
##슴다
##역겨운
##추카
은상
타들
과대망상
##속지
리버
뒷방
##대립
분홍
##냐니
애프터
김민석
할증
##칠려고
##사이클
숨죽이
누이
##일주
게으른
파헤쳐야
시이
##버나
감탄사
아미노산
수입품
##代
노리개
##박물
##퐁
찌른
걷히
수화
알록달록
##떨어질
##받치
도화선
오른다는
흐미
계집년
대굴
새낀
호세
##그래프
##락지
##노후
##们
##떨어져서
온정
인천대교
하회
##메디
##기년
##못한다
지급액
지린
숨겨둔
올린다는
스테이지
척박
##모션
##기국
다크호스
역삼
객원
복원사업
소독약
금식
끝물
##인도네시아
##새로
PS
전구
일깨우
거봐
탱탱
정맥
속칭
되물
자투리
구내식당
나아
손승락
퇴비
언행일치
내곡동
도넛
##언급
##어만
쉑
빙판
1550
##지어다
##처하
계획서
##포천
칼부림
##리좀
##갱수
저버린
206
적대시
##산과의
뿌리깊
한빛
우군
사진가
우편물
어물쩡
강진군
유념
##고하
##발주
##제자
밸리
허씨
##서에
동천
##브릿지
꾸며진
내비친
하마스
감명
##진리
부추긴
혈액형
한듯
멍텅구리
말구
실비
함축
저마
변상욱
크크
짤려
##활력
더비
잠금
럭키
##발효
값싸
##불금
스카
##대권
##된다니
##그녀
본방
윤활유
살찐
##걸려도
##히어로
마중물
처진
슬로프
되돌아가
티파니
오자와
핏대
험악
##못된
메커니즘
임산
군데군데
##갑지
까페
바라본다
갈아탈
##나들이
망가져
정해서
하역
장윤정
에비
주실
오토캠핑
칼질
##포신
##다수
알렉산더
##익과
##해지지
##꽝
245
##한복
의료법
윤가
막노동
뚜벅
죄이
시진
대질
##소프트웨어
북남
뜬공
영화계
건설업자
##출전
거래세
레이크
자상
가르키
##미소
운치
새겨들
스케치
이영자
배급사
솜
찝
이원일
최상위권
##단인
손보사
성취감
유한양행
이철우
멕
제게
지렛대
##머의
민란
렌트카
라멘
##전주
피격
##성취
손사래
짬짜미
꿋꿋이
댜
##종도
마모
스플릿
서현
찜질
##잉글랜드
박장대소
안행
염산
전염성
양천
##子
부연
빗나가
##전날
진저리
돋우
##교단
강사진
따지기
비씨카드
중랑구
앞산
##낌
내막
욕심내
국민생각
귀담
문성근
##통산
저유
들여야
자루
##원금
메아리
국교단절
##송라이터
건너간
전사한
조우
딸려
##유해
헛돈
##절대로
##ㆍㆍㆍ
##정보국
후세인
덤핑
빵꾸
휘감
종목별
##동제
lte
##기부금
빚어낸
마닐라
꿩
상은
루즈
##왼쪽
왔으니
든다는
##표절
진라면
쫓겨
진입로
LGU
드러워서
##타임즈
전래
##인인
반역죄
메세
##편안
평행선
저촉
##후원금
향우회
##덥
##칭송
마빡
끌어내렸
##독립운동
바레인
##식도
귄
부비
무교
밸런타인데이
##인공
##선원
에인절스
나타낼
FM
222
##아까운
보수파
체인지
넘겨졌
영해
메밀
언사
피보
Free
할랄
마쇼
마산합포구
미지근
##법령
##유발자
##장률
합장
엥간히
낭송
감지덕지
##독점
암매장
##이단
우주인
##무게
지껄인
##합격자
템플스테이
##네유
피운
가림막
##naver
홍채
성상
폐경
첸
황이
##아홉
의령
##계기
남조
노엘
날아간
싸운다
##집들이
띄운
##천지인
##내편
시효
##이순신
party
뭐요
약효
##토요일
유흥업
윈터
누더기
호사
람보르기니
봐왔
잡아들여
어조
##준표
감경
훈방
놀부
농경
지류
##어딜
추천서
라운
일변도
수발
들뜬
웨이트
격분
수프
다수결
##내란
##궁의
계발
장근석
주간지
까딱
##자왈
껐
##온난화
김양
동아제약
보일까
전조
김정훈
주원인
##굳
일련
흐린
가렸
배점
당첨금
KEPCO
##기업체
거쳐서
바꿔도
##피로
경축사
낙제점
샌디
##과학자
엉성
##생일
파다
자가당착
판이
쌈질
몬하
크리에이티브
산수유
교통정리
자조
선인
사석
샘물
이뤄야
신선도
계룡
겸허
소탈
강병규
보여진다
떨어뜨린
에틸렌
##갤럽
##NO
어지러운
##평화통일
갑상선암
굴착기
웨이퍼
소도시
씽
악다구니
##진국
##가증
##흔드
##王
지칠
정부서울청사
##입건
##오피스
마차
최빈국
대동단결
##볼께
현금영수증
##통시
고물
연유
부국
##교역
알로에
보살펴
신용도
자승자박
##더라구
폭행죄
서려
##리츠
기름기
부총장
들어간다는
소장파
##잤
재단법인
##혈
##심지어
아배
꼬장
##개새
228
##베이징
단과
담근
조르
조리법
개색
훈련소
##전망대
##명은
깔깔깔
거둬들이
배재
##몰아내
이재학
##ECB
로이킴
천치
테크놀로지
중책
두드렸
녹이
##려니까
##졌나
##요새
##도중
##112
##NC
정우
##OLED
몸조심
##DB
##인입
들일
어영부영
유작
태동
불어라
금남
##완장
가져다주
종지부
로리
영수
메스
##낚시
##시지
도처
##광구
나래
고름
준전시
##쳣
##뀐
##였음을
태안군
힘쓸
브로드웨이
결전
고담
오작동
녹아들
처가
오로라
##스웨덴
남한강
바티칸
분당선
조련
##드셔
##집합소
꼬매
도와줘
먹였
##나간다는
부지사
##김학의
직군
고엽제
김종훈
사납
##제휴
사로
신춘문예
손색없
##했다간
택할
##작국
##술집
생겨도
완연
이질
얼만지
##빈다
##을려구
본의
쪽파
김대업
##~~~.
총점
석탑
웅진코웨이
호조세
토의
삐뚤
불러다가
구해서
##금지안
##매년
저속
먹일
##딲
배나
한국갤럽
법전
백정
당수
##저들
스피스
걸어왔
제로인
리커창
##며칠
아리아
나왔었
베가
##위도
##Fed
밑장
이윤택
스노우
인플레
휩싸여
독버섯
##."
##수괴
##초년생
아쿠아리움
##식스
마을버스
옥석
내실화
임씨
크로스컨트리
최적지
우원식
..........
##붇
##뱃
김상교
##....?
##버러
여성복
혐오감
코멘트
##옮기
##개웃
에선
흠잡
215
지멘스
반목
철길
##디젤
##석차
자연사
네임
너그럽
##임종석
##사노
제앙
갇히
조깅
치켜세우
##프라이데이
온실
켠
##바뀐다
##태워
전공의
교도관
희곡
차려입
튀어나와
##깊이
##박영선
단일화
바구니
교착
모셨
다롄
##체로
잠룡
콜택시
상황판
느껴짐
망설임
기혼
달려갔
##".
##만지
호스
약대
가택
비린내
##공모전
##여주
구렁텅이
퍼센트
##인갑
묶음
DMB
##속초
##게시리
면발
##진료소
숨겨져
사슬
게임빌
##化
동네방네
모자란다
이율
구속력
박신혜
주동
##불려
##선택제
소울
##9800
풀어낸
##해군기지
중일
오신환
김준교
##1990
프로그래밍
##소중
##벌어먹
을지
##너리
오매불망
##나올까
탈선
##보따리
##룻
사령부
겁대가리
공공성
보여라
등정
명예직
##다루
##간단
##금포
##응께
##결함
합작사
##침의
척추관
##축협
연타
아파요
운동회
##중학생
존엄성
나빠요
##는단
불구덩이
농업기술센터
##가세
##비호
해쳐
발원
잠자코
오져
안타까워했
보해
남음
효수
ㄸㄹㅇ
중령
2024
##330
덤프트럭
떠나가
서울구치소
배아
매머드
퍼뜨렸
두꺼비
아닌데도
서빙
운다
최하위권
편집국장
고흐
번호표
크리에이터
세출
추모제
따왔
원정대
동창회
영업용
##방카
##치료비
제창
동분서주
##일리
적외선
논밭
최장수
판상
크나큰
건실
청룡
축조
울릉군
##문장
##typd
##재판부
##규격
세원
널뛰
견조
##종위
##뜯기
문경시
덧붙이
##다큐
##이타
이뤄지도록
##다거나
전출
##으시오
회원권
브러시
팠
중고생
날아간다
터짐
욕질
난입
태평
조재현
##흐르
##국관
끌어오
버스비
##사업가
결손
512
##계십니다
~~~~~~
참모총장
군위
빌트인
엄호
##만만
##역학
##반전
##트레이닝
가빈
친위대
진찰
평론
방청객
메타
##일땐
쉐이
서지현
##체질
##취향
아이즈
##자질
영접
동장
때때로
##오력
##거자
뻥끗
입가
키코
인형극
##행시
조계사
임대업
##일찍
신동주
지나칠
##싼다
갈비뼈
어금니
쪼금
##못난
외쳐야
졸로
무식쟁이
##웨딩
돌격
##박과
김재환
위시
없앤다
휩쓴
괴로운
깊숙
##헤라
노무라
수호자
##국군
치를
이겨라
##갱신
투기지역
적산
##정거장
의창구
달궜
##향식
자궁경부암
김상수
피부색
##까나
어쩌구저쩌구
녹록
##라드
췌장암
전지전능
의문점
아로마
차면
##부시
##어울린다
토악
어줍잖
##공관
##之
패인
##그름
주승용
포장재
##팬츠
당비
허전
##니지
##소매
자작
##임무
평균인
무혐
풀백
##일대
꾸며졌
대드
해택
평택항
삭막
##우편
##아마추어
##도루
힘썼
해안선
손수건
197
터져도
옥천
난폭
김현종
침탈
시아버지
들여다볼
##위나
정성룡
##활동가
자본가
##주정차
벌칙
##날라
한기
정치범
good
##성형
엄지손가락
##종인
이용권
수세
##감세
☎
중심가
수술실
먹여야
##놀랍
즤
##축구단
##이사의
##영주
##밉상
##생길
프라이드
농어
##쌍용
외톨이
넥스트
5060
옳바른
괴상
##차로
미트
늘이
임이자
수행원
4300
드래곤
청량리
예멘
##수성
파먹
##멘탈
##ㅑ
##겨루기
수니파
기념사
물고문
IQ
쓰다듬
떡고물
##동대
모터스포츠
근로복지공단
NBC
구색
지나쳤
스피치
명창
만우절
##철폐
##긴가
공격진
예식장
넉넉히
관직
설파
##카를
##화제
유산소
바삭
장작
괴한
뮨
정치계
are
##💙💙💙
밀어붙였
##매물
유흥주
좁쌀
윤증현
흘러내리
영화사
가인
퍼시픽
스포츠동아
##룽
오아시스
프라다
먹인
뜬금
고려장
정준양
옹기종기
##업장
무거워
엘베
마티즈
AV
##탈해
편향성
천체
##당제
주포
##는대도
바이두
풀칠
당나귀
216
##구좌
##네덜란드
날라오
몰린다
문화방송
길고양이
간지
내려놔라
일갈
후임자
수소문
국립묘지
##벌라
##개지
울거
은유
고쳤
흔들려
AR
##기념식
##새우
종주국
눌려
속설
##금마
##어유
탐방객
재충전
##구네
영동고속도로
##공개념
충청남도
##동호회
##관련자
매장량
프레시안
##갈의
상하수도
##녘
멍게
미생
프라이팬
##라든지
생년월일
##북구
골라야
##조끼
크리스티
##치인
범야
근현대
뛰어가
아니오
##떠라
강기갑
##식기
##솔로
보름달
손끝
##똥물
환승역
마술사
스페인어
##세단
보상비
단둥
##괸
##형량
사모님
##총재
경증
##놀라
##쥐새끼
촉법소년
합방
물쓰듯
##.................
군더더기
철분
서신
판화
##맨체스터
##빗
##마아
반의
북북
마요
말든
짜샤
사색
사식
문상
##살해
평창군
논설위원
성수
졸라매
##앞서
##계란
##통곡
살판났
오세근
채태인
엇갈려
##NYT
들어갑니다
김태형
가방끈
활황
##볶음
심리치료
너덜너덜
Tv
뒤쫓
##정직
박나래
스티어링
공들여
제수
까진
나으리
펼쳐왔
공포심
변속
##쏟
세탁소
숨쉬기
고학력
퇴거
##호재
##거려서
내편이
##을라면
프랭크
위독
논거
하소
191
테이크아웃
초짜
수유
경호실
##독자
##보라
삼척시
이명희
##나나
파쇼
개인위생
모내
##신앙
##뱀
##러네
개때
##넘버
배고파
함유량
군락
들먹거리
속터지
##마소
정예
붙잡혀
##면허증
##의지
##OUT
장혁
강화도
##上
##추억
이택근
봉건
딴판
마윈
노사모
광신
안겨준
화폭
새로이
##320
##학문
여호
준영
##품은
끄덕
바젤
정량
앨리스
왔었
옛길
초일류
##워시
##부머
미니스커트
떠올려
대웅전
그렇지만
-_-
쵝오
##!!!!!!!!!!!!!
쿼드
몰매
물살
의료기
플러그인
끓인
##터로
오점
##모욕
낚이
흥선대원군
##알아먹
빠뜨린
##이스라엘
관계사
등한시
##SSM
화이트데이
##부사
식스
굳어지
명줄
콧방귀
##짤리
모진
##사생활
양민
##==
강원도지사
컴퍼니
찡찡
반겼
##포드
570
무지막지
저길
근린공원
빈발
211
권투
##간다면
데스
지검
낙방
구속영장
##탐지기
##다고들
우연이
주름잡
줄때
보지
잦아들
지배했
01
##분수
##유신
##마셨
조각가
의식주
동석
성인병
간도
##교차로
고조선
##습니다만
아람
산나물
##포탈
가련
##생긴다
##고작
실성
##?????????????????????????
떠받치
담요
유제품
원죄
께서
안타까웠
장도
인질극
서재응
망원경
내모
##out
광안
권오준
##향기
##미스터
압구정동
전초전
버킷
넘어져
커트라인
##거렸
독신
물면
##mbc
동심
410
초치
##뽁
나무란다
화염
##일시
다닌다는
당혹감
하한가
##생활비
##복제
촌구석
번진
정겨운
피플
부정과
장유
징병
문학관
##밧
폐륜
코나
##레이더
버텨야
제막식
땅굴
홍석현
개오
##참한
참작
정갈
가스통
개욕
##이크
특진
턱밑
우열
##스캔들
놔둬
남겨야
##방촌
변압기
백수가
대청
##??...
MIT
무법자
내디뎠
캐딜락
일정액
하중
불어난
우정사업본부
##나바
194
고발장
##당내
통근
배씨
공돌이
부러워서
돠
##기술인
##호황
##윗
AOA
호불호
부서장
##세나
울린
현대식
##언제나
출자전환
후일
저온
도르트문트
되새겨
##피겨
213
운집
요상
교육용
저택
인헌
얻어터지
상용차
##구성원
오타니
갈매기
명화
##고라
이사건
황산
김선빈
##TP
##비서실
추격전
이씨
김정우
연단
##런닝맨
습한
275
이광수
번성
묻어난다
##제동
##,..
논다고
구캐
UCC
메울
대로변
BBQ
밀려오
합쳐야
완투
날려라
서기관
##특수강
##합창
명진
휜
살려서
분뇨
약재
##두만
런닝맨
아실
##천막
##심해
##CD
##당규
##반값
가도
##무인
영미
##170
##노친
세라
페널티
##전수
##장만
##거냐
빈혈
치수
##단층
이영호
##비상사태
똥걸레
기모
경전
고지혈증
속여서
##미나
유증
일언반구
짜식
##니놈
##린카
##공수
온난화
행여
지나간다
김병만
온두라스
직분
##실버
##추안
##하도급
도봉구
무대책
속공
난거
깨우
##의정부
##!.
직언
##분향소
뿌려서
씌울
여순
안대
개관식
껄껄
걸스
##서비스업
양동
##라카
한태
##트집
연마
해수면
산후조리원
김진우
##논거
##뒈
##공산화
스타크래프트
변혁
내조
깨우치
빠짐
##펑
겸용
##유권자
받드
##한잔
식당가
수여식
허무맹랑
이혜훈
털린
서약
골프공
장보
##다워
##고을
대손
##선교
##넴
##슈즈
슬라이드
##화고
지운
##램프
##거절
문조
UP
마스카라
이시영
도봉
눈꽃
평탄
큼지막
IR
총공세
폭발력
셀러
고베
크리스티아누
프러포즈
##장애인
##플라
스테디셀러
##안희정
샤프트
##사악
질도
회계감사
##해줌
파헤쳐서
##던져
##연간
연륜
캘
강운태
##스톤
좌판
##전설
진돗개
명성황후
고마울
##선장
쇼트프로그램
우글거리
받아적
##내놔
##뺏기
블리자드
주루
이른다고
##버블
스마일
삼정
시운전
##엌ㅋㅋ
모나코
이재성
##남친
프로그래머
산삼
민병두
곁들이
눈귀
##ㅇㅣ
먼개
##드러운
후학
데일리안
서행
##터키
##페이스북
무학
호령
화낼
층수
난해
빗발치
##멋있
찾아봐도
강약
질긴
쟁의
슈퍼카
근질근질
점장
던져야
에스컬레이터
축구팀
절충안
##피곤
##수신료
##자매
언변
##유야
전횡
유불리
이스트
##대표부
학규
경자
##해낼
##이입
##뭔들
데스노트
댕겨
##천동
김민
근육통
##유물
보낸다고
##떠드
기보
##절하
##고검
밑창
##ppm
경중
울주
바꾼다고
##버렷
####
꾀했
##엘리베이터
##브러더스
##선수단
눈초리
하품
##둠
피부염
응한
경작
시시각각
놔둘
##을런지
이보세요
몽환
##광물
황정민
복근
##정황
212
공공장소
##거대
겨우내
속사정
##점령
##미션
뽀록나
얽히
자격정지
건성
aT
WTI
살의
참새
##잘라
감기약
인건
까만
##네스
이쁨
죽여버려야
토막내
우스갯소리
재우
##미관
세후
##가서도
##구녁
들여왔
경찰차
##동물원
외무부
불러들여
황소
인기투표
여서
함박웃음
폭군
##法
위계
갈라져
기소유예
##제압
유구
##어지
윤규
##으라구
##불화
##Mbps
##등본
해주
##둔화
##입구
각색
어르
##이율
증감
축산업
통신업
##클린
의성군
##인공지능
##기업가
##대국민
거짓부렁
##민설
코펜하겐
이상호
양가
퍼먹
장보기
##응급
##체육공원
흐릿
##추모
##어리석
##시여
지방행정
246
덮개
점쟁이
황정음
힐튼
농구장
불기
##비결
##쟁점
경계심
사이판
##였었
##십의
꺾인
버겁
샵
피부병
##종말
두려운가
스즈키
물밑
ISO
곧잘
빈축
##사시
##영남
NIE
각선미
##식충
##한전
TBS
선미
도공
자수성가
##전기차
에러
올챙이
맥심
누가누
##들어서
분전
귀고리
##질주
신해철
제습기
##국격
울지
원자바오
윤아
##녹지
##일색
가랑이
뭔줄
##엔드
##OO
문화제
재활용품
경범죄
비번
어긋난
##제일은행
##불허
##난동
꿀리
##잔다
##뿌린
##동정
##시문
잊어
베껴
요동
원초
나르샤
시간표
누볐
OPEC
##버섯
##려는가
GT
##열정
흘러들
##미세
영달
##운가
##정전
##해가
대어
##배신자
##잘사
정동원
##대한항공
허리케인
대문짝
EV
##사각지대
리어
##웬
##통해서
##비랑
왔으나
##증권사
##소방본부
##비닐
퇴짜
##220
개인용
북적였
샌들
580
##고령화
집적
번지수
비정
##갑니까
정치국
##이양
##금과
##김진태
나가사키
캔디
##도매
훨훨
##렉스
임관
단정짓
사시도
무형
##밀러
코코
##％,
힘써야
방도
소라
국민체육진흥공단
대피소
##튭
##하루빨리
통재
~!!!
축의금
블러
##직종
##까치
##메탈
##벨벳
지켜냈
CS
냉랭
##스틱
잘린
개야
##유역
과밀
크리스털
##망은
##서진
##유원지
ㅏㄹ
##처맞
gdp
어중이
웨이보
2900
수완
##예술계
##모자라
움켜쥐
##유니버시아드
##헉
하염없이
기타리스트
춘절
아양
트이
그까짓
요하
##㎢)
커리
##그분
계장
##로어
종주
680
기른
물음표
풀려난
##써먹
바본가
쒜
##점심
촘촘히
이노베이션
되갚
대민
##띨띨
해치백
증권업
##장서
리포터
##몽은
##혐의자
청량감
함안군
##후생
박한별
도적질
바이크
콧구멍
만석
##비지
우크라이나
JW
##장제원
##분다
""
낱낱
부서지
곱하
##블랙리스트
땀방울
##중심지
레프트
이당
##갈라고
##출구
사하
예술단
놓아주
장려상
##입니다만
##찌르
금할
타오르
7080
암적
외벌
ㅕㄴ
윔블던
본원
구닥다리
##생산량
##사부
##벵
오다
보내온
원예
##기술력
##살까
##가제
DSLR
톨
##550
농수
콘트롤
주경
##동작
##가닥
밑빠진
일망타진
우수수
데상트
독불장군
이세키
##라더만
채워져
##대문
##내림
##아라고
독일어
##우터
물병
충정
획책
격어
심사위
와일드
반포동
들이미
결정체
활력소
보합
톰슨
들락날락
##걸루
##깨졌
##중구
214
##투신
안도
선곡
주마
매가
네버
죽통
니에미
##네이트
균일
##화상
성산구
##집행정지
다녀가
시작점
짜맞추
##라오
럭비
##아비
열씨
##관서
포르투
로그
마담
속앓이
##졌으나
##칭한
터무니
할당제
쩔쩔
신빙성
들락거리
감초
##캐스트
고깃집
망신살
꽃놀이
##요들
선덕여왕
##싱글
##흙
용선료
카셰어링
은인
일루미나티
bj
경화
밑반찬
##우물
##베기
꼬옥
같잖
민화
결항
낙천
필하모닉
##다녀야
##오줌
공방전
경부
연대보증
##靑
사고파
서희경
달팽이
언젠
##부추기
민들레
##도교
세련미
부업
세삼
수신제가
버립시다
##편파
앞부분
어법
치질
지하실
##AG
##???????????
##재명
##순만
영종도
보성군
416
##교통망
깔리
부추키
넘어졌
석패
진풍경
##공해
역투
##가임
숙인
헤집
레이건
##결심
##특가
##드러
송현정
ㅐㄲ
속전속결
차비
재목
포메이션
##여의도
##종편
##갔으니
자자손손
마귀할멈
##들린다
본산
##신설
광고판
##직장인
키친
일러스트
새들
들여보내
##판교
##인권법
송곳
##만져
소린데
##대행사
현상금
임시직
장타력
##한진
##공지영
##㎍/㎥
반지하
299
##대표인
산별
육질
걸레질
##경진
규약
두려웠
장사도
뜯어보
화물선
##레포츠
무비
##서해
##족부
격론
법원장
##예기
형세
회신
쿠쿠
둬서
장악력
됐었
모집인
아낌없
탈출구
##수십
모성애
특감
##한티
##찌질이
##가마
봉변
##구원
##부흥
##약하
장쑤
여성미
잔존
에그
사파리
한탄스럽
##차려서
피아트
청소년기
캐럴
##집내기
##지점장
헤치
##전대
남해군
린드
예찬
쓰임새
머시기
##욘
뿌옇
##얼른
클레이
폐점
##경찰의
신전
가정주부
찾아봐
이봐
##찬탈
범실
##조립
##식한
##비행장
곡식
앙겔라
약해진
디디
상존
식대
종합부동산세
##맏
##때가
써니
캐내
##부른
후딱
조성민
챙긴다
서건창
##밀집
겹쳤
바지락
베베
동교동
감정싸움
성룡
##처단
화약
UEFA
황색
불철주야
현진
가십
##발암
##들어온
##싸질러
대극장
실언
##PK
탐정
유천
##더러워
좌경화
모입시다
침출수
기름진
부화
하늘길
상습범
##혹은
트랜스젠더
##퍼트리
트레일러
조림
##블의
금새
보이지
즉결
학수고대
답답이
##내놔라
##나선
뒷담화
053
상수
시티투어
항공료
##소방관
##해진다는
##니아
구테
##혀서
재야
군용기
발기인
##뢰
테크닉
##합쳐
##번건
혹사
##박사모
##대혁명
자랑거리
##맡기
메츠
포항제철
보안법
숭실대
##올림
##올시다
방편
##환경운동연합
##밀양
##러시
상했
코스모스
일신
리셋
자치단
두들기
봤었
여보세요
내팽개치
##믿음
##먀
메롱
쭵쭵
##봉승
##술대
세뱃돈
평상
##낼까
윤병세
그치만
열의
불티나
마져
상관도
강령
1947
##낙하산
머플러
뒤바뀌
호프집
##기상청
폐족
##멋대로
##죽인다
내력
##동아일보
재보궐선거
잠재성
대포통장
##약한
##마티스
바우처
의뢰인
랜덤
이진영
리미
김종필
리무진
##재수
##워리어
니랑
노마
백지영
##동월
##예술제
애걸복걸
부대원
무함마드
##황당
##셔라
일렬
통기타
상동
민법
랴오닝
찔끔찔끔
수영구
누운
떠올릴
걸기
##개통
##수표
안내도
폭식
##감수성
산티아고
엑스레이
바로미터
민수
##외모
##'?
##해져라
##032
버지니아
##NH
올지
때려치우
선견지명
초순
##최종
##산업은행
달갑
##빈도
NS
CPU
##천황
8800
남유럽
해시
##얻어먹
후속작
흑의
미관
##여친
화천군
휘말려
##머스
고릴라
##봤으니
서부산
##변론
김범수
실소유주
##어진
롯데슈퍼
가엽
원상회복
까치
광덕
배용준
고체
위화감
SOS
육교
##교복
##아부
비상시
218
굿모닝
㎏
지방선
청산가리
##베네수엘라
진거
수력
원거리
시아파
남성복
토너
피파
##유천
나찌
밀워키
추스르
주재원
##신체
나뉜
253
##아만
고마웠
##방재
##곸ㅋㅋ
지랄같
마셔도
사회당
##요트
##3800
지카
##격투기
으레
신앙심
초과근무
감독상
이상훈
미나리
김선우
##㎏·
강바닥
걸러라
거로
청력
##No
시래기
하달
거금
도곡동
파프리카
페넌트
회차
##선조
묘목
226
별건
노미
##2030
##자당
율동
목청
장성호
##어민
문노
레밍
채광
##초소
스트로크
박용만
##CCTV
모빌리티
불거져
쳐야지
돌볼
직경
감옥살이
상충
##강서
밀레니엄
북면
##대임
불이행
도탄
부안
철구
한동훈
맞기
##오랑캐
##눌러
##취해서
머뭇거리
##탐색
인턴사원
여보
수틀리
서스펜션
콜드
벼룩시장
누계
##줘야해
##사기극
입장객
##조개
##갠
그른
재롱
바쁨
##了
##👏
어렵사리
쌀국수
##컨소시엄
솔깃
무찌르
양학선
공항철도
박지윤
매매혼
##재청
##대답
##일걸
##네그려
##마츄어
염분
던져라
계도
QLED
청계
화원
BIS
이끌려
##준대
##망함
엎친
##이노
활기차
호명
허심탄회
추워서
깨끗히
개저
갔으니
바이에른
##숏
##일곱
케인
##양국
##라던가
에이핑크
##시드
모란
탁상
제복
##㎒
응했
고무신
시부
동북아시아
생강
운정
욕조
수증기
상지대
건넜
봉사상
콘솔
승무
##유공
최준석
이사철
ㅇㅅㅇ
로빈
##징글징글
친동생
보라색
자책점
엑셀
경동
이유나
예배당
등본
외눈박이
##중과
유연탄
##경영진
수아레스
##증축
복강경
##生
오예
어유
##망조
국수전
가열차
##썩어빠진
##종전
영통
##국비
토플
##시나리오
##솟
표준어
##계통
##ICBM
정성훈
접안
##브리지
김이
뛰어났
꿀벌
스트립
##아마도
##조범
##박원
##으신지
곤경
고증
중턱
그럴싸한
##풍기
##보호사
트라이
##습자
불상사
친선경기
전진기
##양궁
부르짓
##각안
야도
될려고
인민일보
면했
장충
##교로
##百
##난사
##스도
주면
##당할까봐
워드
츄
일거수일투족
고질병
##치곤
##자아
신고식
괘씸죄
##크로스
박재완
##분뇨
##조라
지나쳐
##ㅌㅋㅋ
##공룡
##105
심해져
관방
떨어뜨릴
獨
분교
목도리
찌그러지
##돌보
돼지발
병도
##이긴다
이승호
폴로
##딕
면목
우유부단
강해서
##따른
##몀
인지부조화
##코프
애로
##水
진품
일어설
적응력
##견도
광해
화장지
흔든
멀티플렉스
성령
##키웠
##으이구
걸어도
##쿼
보폭
완비
반송
도이치
맞고소
with
가치주
올림푸스
영서
##도식
##태극
##반도
프렌치
샤이
허튼
자일
협상력
##생애
뒤집힌
그제
담화문
헤드폰
##하필
쪼가리
##쳐다보
##ㅍㅎㅎ
##아팠
##등교
늘린다고
팽개치
쓰레기차
승냥이
울퉁불퉁
##원지
배가
운동량
##어때
긴급조치
배기
정진
개집
##!??
##만기
교각
바닷길
쟁여
##바뀜
##져야한다
끼쳐
다짜고짜
##상위
눈꺼풀
##240
##연주
##귀가
로저
빰
조타
##미녀
천문
비보
##모범
##타인
오원춘
엄청날
파스
영주시
심판대
늘상
##SM
예루살렘
##설도
##성빈
군내
억수
##다신
##정복
##UEFA
고입
##캅
재고량
타블로
##조민
사상의
234
사사
웃음꽃
##외식
배웅
해일
##오른쪽
바닥나
##틸
##너지
숨소리
방방곡곡
기어나왔
##금요일
먹물
큰형
##부산대
부침
##호흡
##지원서
##과대
정회
끼어드
으름장
중죄
꼽힌
조니
##페라
주입식
##치기
##지겨워
탄산수
##고성
##051
말라리아
##흡수
라식
해칠
##북당
나폴레옹
돌팔매질
몰골
CO
걱정거리
인척
탄두
나영석
##퇘지
오뎅
혐의자
철통
##중점
접히
##개무
새우깡
뽀개
##원하
##國
##감리
기개
가시나
그리구
십일조
##‍♀
##만희
##MD
배수진
전시물
사족
올바로
빅스비
저린
##완벽
##감추
쨍
양비론
들먹여
체포하라
지켜야지
우선주의
인버터
##납품
거셌
뒤흔드
일회용품
##이외
후리
##좌표
한신
##회대
뚜레
##니랑
건배
##경상
최교일
##앜ㅋㅋ
창창
##지문
받아들인다
산체스
##그쪽
##저주
두리
양치
향할
개좌
##퍼줄
불러일으킬
시사점
명산
뒤떨어진
디딜
만민
도요다
##망구
신지
AC
개종
스크래치
기품
검색창
셋톱박스
픽업
미취학
참관인
면직
##국세
펌
전문지
##허락
##줏
해준다
옛부터
##낙지
##스파크
##임용
##수료
딸딸이
##붙여서
마라도나
정용기
전등
##체류
얌체
##카톡
신랄
개나발
##㎓
팸
나포
돌려줄
630
##카르텔
다냐
폴리페서
담길
음미
코너링
응할
로이
전류
부경
##까네
아자씨
풀발
총영사
곤봉
##저서
조족지혈
김범일
뉴저지
온나
겹친
##기보단
##악물
만델라
바느질
SSD
등치
##총살
달랬
닻
점원
꽃밭
건드릴
##뜸
##농수산
##냈으면
##일관
앞당길
물으니
##블럼
CI
##손학규
소의
##마피아
어린이날
##께선
##분열증
초여름
##硏
##피니언
받아들
주파
팻
##작곡
최용수
##수조
김용태
핼
가변
위즈
첫눈
##2800
##릅니다
##즌
안전띠
궤적
송전선
전집
머리띠
아름
대전일보
재발견
##Z
시킴
죽치
##잡수
##거등
##상여금
인터페이스
##화소
##시골
논지
띄어쓰기
술판
도려
진해구
##베스
##AP
##결집
##사채
##부하
끄덕이
일조량
브뤼셀
##꾸지
##어딨
뒤끝
구렁이
나프타
무너뜨렸
질수
과표
그래핀
고즈넉
스파이크
##수순
##귀걸이
##~~~~~~~~~~~~
##빈곤
비상구
생각났
위문
##기운
잠은
물정
북조
나원참
민조
티타늄
해의
질식사
##피아노
석기
중무장
무력시위
임모
산발
MRO
##꼴찌
재방송
독실
익스프레스
##슈퍼마켓
대한문
불나방
##kW
##메이크업
임종룡
참고서
입체감
번듯
안내서
##아티스트
터무니없이
카펫
##매출액
##명부
초장
반월
드니
우직
신진대사
삼천리
과수원
꼬라박
흐를
##법주
감천
난타
격려금
##반역
뱀파이어
시큰둥
매티스
##치워야
손봐야
박창진
악세사리
##까자
광폭
플루토늄
보시라이
##650
만발
##어떡
##다잉
##순손실
##승무원
사대부
메뉴판
내구
##빌리지
광채
골프클럽
##본색
곰곰히
ㆍㆍㆍ
이정은
히터
매표소
안전도
물리쳤
조여
##액수
본계약
멋쟁이
##터도
하대
유발자
##전청
회전문
뮐
##코리안
##트론
##비단
솥
레인보우
찌개
등산화
댜오위다오
수사력
해학
이순자
##~*
장년층
한철
출판계
툴
아량
##로프
##뺀
##WTO
단양
##미러
스텐
스탠다드
험하
##섹션
UV
남서
사할린
##중년
자물쇠
외할머니
##대잔치
##일히
배식
##전투기
메꿔
유전체
올림픽대로
이슬
피시
Who
공병호
짝짝꿍
잉태
USA
수채화
##1700
##FM
##건립
Moon
빠져야
##몰락
엣
깊숙히
아랫것
돼냐
횡단보도
##노코
##토스
힘줄
기묘
경내
포경
지켜왔
빚쟁이
##수용소
반미주의
흥신소
중앙동
내레이션
줄리엣
부산일보
##꺼도
아뇨
##무진
편인
전번
##아닐까요
##국시
##선기
##쓴다는
##떠서
진보라
들려왔
연수구
어려워도
피서지
##男
지낸다
4400
##탁의
태어
폐선
트레일
해인사
##어택
범여
붙히
CSR
##기암
롤스로이스
김용호
드려라
탱고
##남구
그윽
상급자
입바른
머리나
모아놨
##개그콘서트
엄숙
##여우
법제처
들킨
##.~
##글구
실릴
##브레이크
##불고기
약체
매니아
플레이스
거들떠
##중전
템포
황선홍
##시네마
##헝
미행
꾸민다
이승준
##1998
가명
##제원
허탈감
##혹
##쳐들
##방새
이석채
BBK
##무자
##구두
연극인
오려
##늣
돌연사
막심
손정의
기자실
지하경제
로이스터
한효주
##양주
북촌
궁핍
봐야겠다
매표
##아간
가려져
##조롱
##갈기
신서
도망친
송유관
##패스트
팰리스
로보
처한다
##가릴
정구
무브먼트
외박
야만인
닐슨
##관찰
루나
##脫
##공범
티브로드
레인지
피케
##정안
##임다
굉음
임도
원액
##유감
##진아
##단축
되질
사서
윤창
##기수
##쓸데없
##꽁
##테이프
코끝
랜섬
응원전
서랍
##박기
4600
의술
모욕감
백운
##살인자
카톨릭
차려서
갸우뚱
귓구멍
스멀스멀
아그
날라갔
##열풍
##채택
##등기
귀여움
병문안
아이덴티티
이율배반
뒤돌아보
괴로움
##생선
진의
그랴
꾸며져
리시브
관치
묘비
빨간불
이미경
암반
역사학
시누이
##뒤질
화학제품
##유턴
사이먼
##가질
게양
##수레
##섭취
스크랩
현업
대축제
##삼공사
##목장
신관
미야자키
머그
의장국
##단거리
물류비
##부재
호되
나앉
##부칸
##왕후
최단
##직후
##리퍼블릭
한예슬
콧수염
##공비
##질아
농사일
묻어났
덩샤오핑
추려
다툴
##음주
##제대
##고수
##해줄께
대필
상록
##모래
##극기
##왜국
밥솥
##셋집
##양극
##365
가자지구
한답니다
굳힌
식용유
군산시
재점검
##감이
설칠
##가여
##앞도
성수동
장성군
장보고
당청
견해차
##관측
김치찌개
일궈냈
삿대
과도기
##아멘
정희
기다
##올까
##꿰
##집어넣
덮치
들어준
##바도
##원판결
생식
##진각
##압류
몰지
깽깽
무등산
화창
##사슬
도루묵
김태원
##방크
생생히
##개구리
인지상정
치트키
앙금
대리석
##연준
지고
깁스
비행장
취한다
##소세
가마니
천상
##대여
재청구
##어대
##신랑
##불륜
##딸리
인서
일시불
##상회
대운하
채운다
해다
털털
화목
##일류
##랑게
이중섭
청원군
##DJ
수로
명승부
아태
황태자
이하늬
적재적소
##기식
##떨리
야밤
망둥이
##견과
매립장
특명
##시흥
특례법
황태
시민군
##절도
양수
농진청
노루
가까워졌
쳐들어오
황장엽
이뻐서
##쌍욕
##장주
노블레스
적신호
##해할
통속
##내야
##인욕
돌리네
##ㅃ
##强
평행
대한의사협회
위업
검수
##이카
홀리
지산
이종현
높여라
235
김수환
직업인
##붕어
TDI
빗나갔
지켜낸
##소인
##호호
##live
붙혀
##니미
갑툭튀
박한이
날아온
##통행
FRB
더워서
독가스
속세
##토너
발치
송영무
종착역
##아든
##대악
##듭니다
깡그리
##철면피
자메이카
화장장
박봉
##베일
정우람
성북
유원지
##어서요
##누군지
조조
놀란다
꽂혀
##핵무기
그랬었
##조합장
##예술가
신경질
청치
##이길
앵글
긍지
장풍
##인더스
처량
##동성애
호남선
부탁드려요
먼지털이
환구
쿨링
오피
이로운
##소멸
##릅
속시원히
##걱
DS
구질
##PEF
튤립
차일피일
##응의
파란만장
일대기
내어주
비쌀
##명사
##끝판
된통
생난리
단타
##성비
학의
##공양
끔직
##...,
무해
작황
등산복
파킨슨병
##가뭄
냉각수
##입도
오진
잠수부
닭발
##세유
철야
##자상
최신형
리퍼트
젠틀
##뤠기
유안
##정유
삼총사
##저쩌
##사병
스파게티
알아본
##차입
주방장
악습
임할
편집자
연줄
달아올랐
충주시
최철한
##남발
프랑수아
겨를
진일보
괴롭힐
이목구비
히히
고사리
준결승전
다섯째
괴수
##정규직
##거세
나몰라
송승헌
##일동
풍산
기술직
##학술지
315
권상우
동그란
##.;
뭉칫돈
박카스
슈퍼볼
##덕의
##수식
##시에
##재건
##노망
##발당
본류
##탈당
절치부심
##전후
기시
드러남
##대미
##으렴
주워먹
기망
##난국
다녀와서
스티로폼
예식
윗부분
##중개업
뒤쳐지
손등
함미
합죽이
요세
회관
광구
용산역
곁들인
사조
##패럴림픽
치의
착잡
탈조
빠라
들쭉날쭉
나른
과부하
헤엄치
계신다
피식
오오
##이럼
##늄
수산업
수금
공돈
수경
큰딸
##찍혔
##바쁜
써왔
오재원
##내려와
유일호
아쉬워하
답지
잔다
물어봐야
엿장수
영삼
에스티
씻겨
##스에
방광
MBK
곤장
자야
이남
변상
바바리
귀도
뭔일
##호랑이
떠벌이
##넘겨
새발
##으휴
최종구
전말
유일무이
대통령령
쪼개지
##인만
깜빡이
그랬잖아
으니
콩고
구슬
토론토
무리뉴
동절기
가가
온거
어덯
윷놀이
파마
##인덱스
##타이밍
늘어난다는
울린다
폭투
##영농
문형
##료가
헛소문
글램
##馬
##호소
경주시장
치미
##괴롭히
가벼움
##하하하
##간사
잉간
##엣지
김희애
채워서
라덴
되살려
잽싸
다이아
생긴다는
##마실
들춰
##YMCA
##기자단
보냄
조댕이
방지법
공백기
숙종
몸뚱이
금천
##합작
부러울
과식
뻔해
##앞뒤
##낯
##어음
왕정
개발비
독살
흘러갔
이문덕
경희
삼립
짝짝짝
입회
기프트
우하
227
##손바닥
꿈쩍
폭력배
꼴사납
익힐
총무원장
돌담
잊어버렸
영전
뒷다리
박보영
노니
##만과
처닫
압록강
##퇴치
예뻤
치켜
궈
놔주
##딧냐
지휘부
.'
건양
궁예
기차역
##그제
짱짱
젖히
원두커피
자책골
민트
배리
##우월주의
##아파하
팔로우
Imf
끽
미라
길러야
##며느리
##트윗
대그
진용
종국
##셰프
##생이
##어미
##워커
##메이트
##켄
##뭣
괴산
홍성군
대강
佛
투숙객
그랬나
제니
##지식인
나갑니다
도와줘도
gp
탈이
억만장자
말미암
무기명
근시안
날린다
##정한
##세사
##인근
조성환
스노
마세라티
공복
계부
나아요
무감각
##마무리
인과관계
국민주
차치
부드러움
우러러
지어낸
##무제
##AR
##사설
김태영
블루칩
카메룬
측정기
패혈증
날려야
일본제
##교섭단체
조사의
참모습
환태평양
##팔자
사단장
상고심
접어드
##목상
##1900
##도착
##향대
김남주
댄서
무사고
##합법
##창대
접착제
##사막
동대구역
약해졌
##오너
나쁜데
토속
##멋진
서산시
흘린다
흡족
학칙
비할
판매처
대영
쪼매
##이색
분립
까짓
##마신
물놀이장
반짝반짝
통조림
줘요
매섭
명장면
일반직
클수록
HTC
##걸어서
##떨어짐
동의보감
봉산
산학연
##툭
게리
기모노
##장난치
동신
숱하
병세
경찰력
고농
노려보
허창수
인감
위법성
##라믄
상명
##케이드
푸른색
##조한
224
참자
된단다
##폭파
##트라
블랙베리
피날레
##곤충
포미닛
##칼로리
세간
##춥
##욬ㅋㅋ
가보세요
불도저
##로지
잴
##각도
그려냈
난리난
~?
국립극장
신세경
오묘
시스코
산의
술렁이
##IP
일면식
최고형
##쉐이
투수진
본궤도
##아우
쟁탈전
호암
살맛나
##어울림
##침범
##구더기
##음악제
종중
##여섯
##트린
장나라
510
그린피스
비슷비슷
##중이
##친척
##온상
눈코
창밖
고라니
미연
인민복
##총사
##북조선
피스
##얄
돈맛
##몰입
부재자
페이크
##톰
IPA
차도
깻잎
정개특위
단란
##파스
먹힌
호스피스
생맥주
불시
##항문
채집
##포토
캐슬
존칭
##살릴
비칠
동호
##심히
犬
##텅텅
##우덜
걸스데이
급할
##대갈통
협진
빚어질
종횡무진
멜버른
##jtbc
이채
참상
워라
##쏘나타
껴서
환노위
졷
Lg
##스카
방풍
도금
##구르
##부총장
대장균
##슬로
닉슨
모로
##;;;;;;
죄받
##625
생존권
솔라
##금강산
모른다면
터다
동부건설
얼씨구나
##갈단
##끌려
결점
들른
떠올린다
911
통치자
차인
군살
실재
집수리
불끈
호미로
남김없이
##을걸요
##당께요
번들
##태만
##태양의
처제
##여인
순정
##노태우
##마이너스
설렁탕
##차질
##졍
말뜻
씨부렸
김영
엎드리
함수
동북부
뒷자리
##인지도
##고위급
돌멩이
표도
긴말
##선데이
차로
가려야
우먼
할게요
##루주
##공략
##모른
##정치판
##황교
##는게
이재
좌절감
##ㆍ합병
내세운다
박주호
##마찬가지
한국학
##FDA
채무조정
##南
##스러워했
인솔
##프라
틀어지
버거운
선거후
내세워서
##남침
인듯
##트리플
셰어
금호강
호호
##노란
인육
망가질
##볼수록
##듸
정부세종청사
구씨
앤더슨
손실액
##탁구
호소문
244
##나무숲
##금당
##충년
반환점
팰
물려야
줜나
238
미친다는
##자인
환골탈태
이보미
유의미
##강대국
들어
시끌벅적
올곧
##육회
익사
주렁주렁
준적
##일국
##마우스
살필
청도군
찧
##자손
##신념
퍼져서
##깃발
창작자
##정성
##군산
지킴
##치료사
잠꼬대
##접속
부실기업
선데이
##시전
부르스
윽
유영하
꿈틀
지푸라기
##건설업
패착
종점
숯불
별자리
마십
##에볼루션
이천수
##입비
##125
엠블럼
대용
##마린
##재기
이준
직물
유해진
무한대
헤드램프
비산
##등록세
떨어질까
##컬링
##불패
듬직
##사탄
##견디
##변한다
ㅌㅌ
##청호
왕릉
켄
첨병
670
##까불
##종교인
##계세요
##녹화
스튜어트
##러진
올꺼
체득
금감
##배틀
##장성
##내린다
부릅
봐야죠
산란계
##올인
고프
조순
유승
##사체
아이고야
미키
##잔고
252
플라
이긴다고
##헤어
##115
놀릴
##아끼
##바칠
##데스크
##파생
##녹음
핵융합
별빛
김상
##모았
적과
대형차
##아유
##치지
상선
박한
유자
말려들
지하상가
과음
우스
모아도
;;;;
잦아지
##재로
야쿠자
243
향긋
방법론
요긴
주무세요
미궁
##팔려
올랐으며
빚진
##지난달
##후퇴
##산책
..?
288
##탄도
빗자루
퍼진다
도종환
ㅌㅋㅋ
##번트
##인테리어
이준기
디비전
##푸어
##사용량
옮겨서
##긴지
##바를
빈라덴
토이
##빻
난청
상산
##민아
서연
전태풍
##케미
유엔군
쓱
앞자리
알아먹
양양군
주민세
플라자
소래
채워진
##쟁광
줫
대상포진
찰지
##화보
301
##고속화
축구공
전립선암
##추한
##앞날
대구분
따가리
김선형
고품
하얀색
##겨레
##드문
##계산서
##동장
도매상
##가두
시끄러
##욕하
토기
731
방송가
델타
##희생자
스켈레톤
씨씨
밀크
풍비박산
몸부림치
김종
##베르디
은사
##단결
##섞인
유비
동아줄
재채기
식지
걸린다는
고주파
탕수육
##무마
##맷
얼간
##인갑다
자그마
오타쿠
시달릴
대할
사민
파이어
##피디
김성
##드러내
##레스토랑
엔고
전용도로
파파라치
시건
##바짝
##밀란
총책
걸음걸이
타고났
무관용
##쪄요
짱박혀
##4800
밀어붙인
##빌라
범용
##심리학
##종로
시연회
닫힌
암석
친근감
##보국
도지
기프
##급도
살찌
##살만
##무형
기뻤
장원
한밭
찹쌀
인버스
##건조기
한영
배때기
##이민자
따라갔
780
메가폰
색의
IFA
##사무관
순하
손소
서슬
틀릴
##물간
다고
홍정호
아지트
##버려요
아쉬우
패티
보였으나
진범
재화
##여덟
##으십니까
##개로
홀라당
세계무역기구
##패배
##아연
예정일
##산화물
방자
메갈이
우려감
##으신데
##숫
버드
전광
박철우
뚜렷이
새치
인주
##뻔한
술책
##돌릴
##끌어내
##으까
##땅크
##알선
##렌탈
순교자
소크라테스
혜리
##低
걸린다고
온천수
극작가
은빛
빠져드
몰려서
절도범
##대리인
##취임
쇼팽
결식아동
##치아
490
초년생
구박
자면
서울우유
무지몽매
섭리
전공노
##상정
유단자
롤링
지명도
##질질
깨부수
쓰레기봉투
하셈
핸들링
FOMC
사납금
유림
##부친
토굴
명료
요강
김진수
기나긴
##우려먹
진술서
약제
백발
그럭저럭
##재야
기어들어오
이낙
소아암
수출품
박찬욱
담소
##운영비
##하계
붙여야
##1999
숙연
냉정히
나간다고
사형제도
##뚜기
현질
##죄면
개택
밝힘
변곡점
떨궈
이대형
일사불란
##힝
LF
니라
청정기
진짜루
##된단다
##!!~
뒤안길
진박
넥서스
어겨
##난방
일면
별의
##돤
##빠를
시달려
스탬프
##제작사
밀어붙이기
데려갔
이종
##아이스
##지킴
포청
저색
번지르
룰라
##라데
외길
이중고
지려
##산동
애지중지
계기판
급해
부실시공
##길거리
모여야
인걸
삼자
발진
수하물
고어텍스
도미니카
귀경
과당
어구
##동행
약학
신보라
##대본
##외면
기사회생
##멤
##자진
준비물
교육학
##핸드폰
5200
액화천연가스
##유가족
##정심
##신다는
이등병
##믜
##선족
##위니
블레이드
##문관
나태
##구직
가스전
연류
네년
여행기
##몰아주
이어간
최지우
간디
그만둬야
안랩
##현역
찰나
선제공격
흔들린다
침팬지
방정
##아미타불
마야
##품관
거명
인비
##빠질
##정년
##바바
내놔도
사상가
도심형
발레단
에지
##골수
설자리
교통안전공단
트랜드
##모지
##‼
##데크
##2400
레스터
어긋난다
##민회
문중
철벽
모둠
악셀
일까요
형과
피지컬
담대
경박
일수록
9900
##부속
##랔ㅋㅋ
내려야지
취침
담금질
데니스
행주
##103
과대평가
선하
##가까운
피토
두당
##탈모
##블로그
상복
감나무
바꿉시다
밀림
관망세
뽑아낸
##창당
맥쿼리
김성환
##야하
주산지
아몬드
##다마
똑부러지
덤벼
##구형
##참가자
정대세
##초등학생
##방패
허참
막힘
들불
눈여겨보
기민
건드려서
##공교육
달라야
퍼플
비엠
식겁
곡면
##거트
##초간
토건
공손
국모
이희진
##자꾸나
##자편
닫혀
세속
비와
당선작
##號
하반신
빼지
##끼끼
오솔길
나바로
일격
잊혀질
아랫물
낚였
수료식
아임
행정학
운도
선반
켜진
대보
##리트
캡처
아편
육영수
김재호
##분실
부탄
##무당
잡아들
##까보
비상근무
된장찌개
결자해지
##원제
조수
촉감
##이모
##兆
##다디
봄맞이
##흡입
건졌
##뉴질랜드
최룡해
##자비
##딱새
헤드셋
굶주린
김소연
흐를수록
팔아넘기
아름다웠
누진세
담수
느껴져
##달기
##태블릿
NL
앙심
칠성
나군
##쿠나
##철판
내편은
##페렴
비속어
광주일보
감언이설
그런가요
##들렸
히메네스
라이스
하회마을
파상
전야제
김동욱
들떠
갈갈이
你
쫓겨났
무결
김영춘
매사추세츠
##메리
교육열
코트디부아르
살아생전
여장
223
황급히
##아달라
##합산
성리학
하녀
개드립
##대노
판매장
앞당겼
인두
##국고
고임금
떠밀
샛별
모태범
창덕궁
율곡
##하소
china
##정동
다인
편했
달동네
##본과
아둥바둥
~~^^
그럴듯
##해리
책임진
##인진
##짝퉁
##수많
불가사의
단다
명랑
##전년
##고속철
편치
대참사
소지품
##물산
##일안
암요
구시
정면충돌
농림부
##전무
##당서
##초보
##국외
AA
쳐바르
조국기
##1100
김준수
##포즈
##용도
##내로
##!~~~
##기재
심포니
썰물
##민자
중요시
265
계셔
말로
##차릴까
분수대
들썩
가로질러
##살균제
애덤
차인표
봣
##논객
시몬
##역쉬
쟨
폐로
뒤따랐
헥터
청렴결백
빙고
북진
미적
혼재
국소
##방송인
휴면
명치
##휠
모실
##신보
분진
##재미있
##분교
##판매량
장타율
217
##함정
Good
##노미
옷감
##까이
언놈
경력자
브래드
264
홧김
시럽
무전기
휴양림
뒤따라야
주사기
고고학
아귀
태울
지나온
핀잔
우스꽝
포크볼
좁혀졌
수북
##초도
윤도현
급작
결방
대한전선
난치병
과업
노처녀
우공
휴관
추문
화전
##불복
양심껏
예수쟁이
##욕할
즉답
캐치프레이즈
수달
한국예술종합학교
##나치
트리트
덮여
##파기
##다이어트
수육
숙박업
KO
##병기
free
원불교
은수미
이착륙
##사간
원아
강대
보세
생뚱맞
##피시
##내려왔
함양군
피소
맞춤식
##포켓
임정
##소금
대변지
https
체전
해파리
스크린골프
##프로세스
##없인
##벤트
##알코올
치켜세웠
박경완
흑색선전
우애
##가자
##지켰
문로
빨아들이
##금도
##보세
미식
국내법
안배
##모순
##석실
태백시
신축성
명판
##!...
##컨티넨탈
터져야
싸드
##뇽
##역자
공예품
떠보
들어올리
##戰
제과점
이용도
접속자
##주진
뽑힐
##을게요
##양회
총구
깃들
##이승만
##대표단
심해진다
##칭하
몰려온
##는다면서
##드릴께요
뺏길
정족수
잠긴
첼리스트
반겨
야전
달라져야
정육점
내비두
피팅
##로또
문답
흰머리
##획
폐인
라서
##살돈
리플리
작명
맹공
고물상
안지만
갑판
말랐
쓸어가
배울까
생사람
쇄국정책
첨복
장엄
무서운데
##270
가시밭길
##래스
군법
불자
꼬셔서
##경오
##급식소
매설
우레탄
##유연
##쩡
토가
##사적
##메드
코웃음
소매점
##오피스텔
##약점
퇴화
##질투
##읍니까
그랬음
!!!!!!!!
##🤣
헷갈린다
990
하이드
속단
해봐요
##너무나
##색인
칠곡
자부담
부전자전
##욕자
##텨
##히가
낼름
##FOMC
관광공사
##우량
경력직
나이트클럽
요식업
벽두
##직권
##대항전
MSCI
신구
Go
죽인다고
##꿈꾸
##ㄸ
황창규
AIIB
##상해
넘쳐났
중문
황국
도쿄대
관권
##허가제
##내려서
##혜당
매끄러운
콜레라
##부결
##핵연료
##위키
##바꾼
마스
시류
쌍방향
설친다
##버려도
ML
위태로운
풍전등화
뒷부분
떡값
천운
저런다고
마법사
##재즈
##사탕
시달린
사생
##키울
##깨져도
익살
생활상
##잠실
에베레스트
##반지
키운다는
##파리바
병의
##어짜피
다질
불멸
펠프스
중첩
박혔
사선
빈집
박찬
##소니
찻
##..................
왕년
위키리크스
한국공항공사
$
백석
뒷이야기
과유불급
##죄명
할려구
##src
##브이
어드벤처
##지야
##볼라
첨가물
박진
이전인
떨쳤
##MC
시무식
##보위
##이레
##좌우
##사내
##보금자리
전우
하마평
두려울
얼큰
봉황
가리켜
죄진
원더
##중복
선크림
##센트럴
동정표
##대폭
##불꽃
##맛집
낮춰서
졸라도
초능력
##김문수
환심
끝장나
##학도
개목
##유망
입학금
화순군
울먹이
##성서
이룰
개청
##위아
앤드루
모성
유려
유태인
##간격
##빠져서
게으르
나뿐
##🙏
조바심
##엘리트
된다니
##법석
##나고
##욕해
##자빠져
뒤섞여
##건당
행선지
경적
바람막이
##가르
됩시다
끌어들인
홍차
##당분간
디지털카메라
두류
칼끝
총집합
한풀이
##리턴
본교
현오석
##어학원
등산로
권세
경영계
##스물
불한당
##~~!!!!!
만리장성
역발상
꺼질
축배
##뒈지
##구년
##195
지사장
산청군
케익
너스레
희극
재도
##어릴
작위
##김성태
파파
##향해
배너
##끠
##쒜
방배동
주모
댄디
단박
##전직
번역기
폐병
지역상
##기설
청두
##탈북자
지우기
내려질
##소각장
물개
##였잖
##허구
##냠
볼카운트
청취자
기하학
##어로
##심문
광해군
크으
##일체
행복감
볶음
버무려
유유히
줄래
##경향신문
때린다
와이즈
메이지
속아넘어가
줄께
주둥이질
##수출입
문산
##로마
운전수
##여행지
꽃피
##해봅시다
떨어질까봐
##졸이
GMO
다나카
내키
##새해
##충분히
넘볼
신모
갈비찜
문안
##컨대
##당적
대뜸
##갈일
요실금
##형강
전편
체외
##리듬
묵과
노총각
군량미
##냄새나
애처
##우라
테이크
펼침
사조직
##신중
카바
아류
지른
대유
박해진
보쉬
SI
이나영
##스왑
무한정
##시집
배회
자긴
##신협
수인
스프
##Y
##필적
##네이션
갈아탔
들먹
모지라
##만능
충무
방아쇠
상호주의
##찮아
##흘린
되먹
##!..
시상대
서영
##보물
이니스
##투표용지
##을께요
딱까리
청명
##구균
낄낄대
se
##찔리
등신짓
조도
New
구한다
총망라
기형아
헬로
##할증료
##MBA
##리진
##잖나
##선동죄
황은
##원로
기울인
㈔
308
피자헛
살판
버니
##칩시다
##구언
이서진
호객
##아이파크
흘러간
빅토르
##연평도
조현오
##190
공여
모모
##훗날
왕건
##나지
드릅
터닝
제주지사
순박
진퇴양난
##월간
문성민
크리스토퍼
붙박이
했잖아요
전하
대체재
외산
정선군
웅진그룹
해본다
이언
273
민갑
만듭니다
김영희
##무를
중병
지킨다고
주무시
##차인데
##내립시다
##업원
넘어선다
분투
##끝났
내몰린
강가
##NBA
벌여온
##바늘
##압승
부러진
브루스
##유행
하얏트
김정태
##그립
귀빈
수확량
약과
자파
##핥
그케
221
##염색
한과
##젯
탈수
에티켓
##~~~~~~~~~~~~~~~~~~~~~~~~~
##갈까봐
건너온
나무랄
출발지
##rpm
강우
발전사
카이로
##실상
BSI
독해력
러지
##다녀도
영업망
우량주
##번가
##집계
##미숙
던져서
순결
##하느님
잘려
##차면
##괘
반도
생지옥
##다란
##느낀다
##비빔밥
236
협곡
거둔다
원탑
##연평해전
놔뒀
베이스캠프
국경일
밋
떨림
##웰빙
멧
헤딩슛
이니셜
##이곳
소리쳤
물러섰
##in
어쿠스틱
견줄
강형욱
놀람
나잇값
##븅
꺼라
✔
상승기
발상지
##104
구내
맞장구
심정지
조리사
조의금
반어법
##거시기
##껍데기
##녀랑
스테로이드
##잦
건강히
조총련
주워들
희대
재미나
서글픈
다툰다
007
발레리나
용퇴
##아까워
괜찬
건강식
##민감
다녀올
라이터
개피
##세워서
집행정지
근저당
남하
몰리니
좁혔
##세에
발했
오염원
##실까요
##으이그
뭐시
-----
최저가
주남
이끼
##누드
인기리
세이프가드
다람쥐
##너머
##kt
1936
꼬맹이
소멸시효
피울
환적
조현민
환우
##정해
박영준
휘말렸
냉기
##기서
페미나치
다이나믹
산산조각
##벙커
티격태격
231
레일바이크
죽전
AG
##요강
빠뜨렸
낙상
부양가족
##뗀
브래지어
반대자
##수면
폐질환
##신성
전어
통칭
##천도
여잔데
##프레시
##도자
러셀
강호순
예산군
ACL
땡볕
##수대
넘겨서
급행
현정은
식후
##들으니
휘슬
##ㅇㅋ
윈드
스타벅
플로리다주
톱타자
##하나하나
##영향력
이수한
##내게
려고
상판때기
##워크아웃
길잡이
최승호
결부
레노버
달려와
시티즌
튀어나왔
락앤락
APEC
꼬치
##치루
김근태
하교
대기발령
하구
##배소
가르고
파토
쿵쾅쿵쾅
##에듀
##위축
##ㅕ
올라와서
확답
이겨냈
##미화
차려진
고음
##표면
산둥
김현정
##밈
북서쪽
##지려
##카로
물통
승리자
##마사지
개문
맥도널드
##스타즈
손목시계
경인일보
발생지
박주신
##아세요
한식당
##목재
이재영
의예과
칭화
국민학교
##자년
도야지
##쪽팔려
##못사
내림세
##史
##모토
##무비
발췌
스키점프
곽태휘
##개그맨
##드디어
돌팔매
##께요
뒈진
판매사
##실증
훗
무득점
고지대
##民
##㎜)
현무
컴플렉스
연아
##그런다고
##기다려라
##팔려서
##😂
패권주의
세배
보증서
##EV
망연자실
중계방송
스노든
##코스닥
클렌
이지영
##상은
##입네
아물
##성가
숙고
무대응
##엎
교할
##마따나
##살상
개포동
동업
##딥
공명정대
##교조
##컬렉션
중개업자
공공재
##답사
다빈치
호주가
285
고분군
장동민
##일몰
고쳐서
민물
카본
기슭
모는
흑석
##상수도
가족력
유니버시아드
##럭스
넙죽
초상집
섀도우
후순위채
봉화군
경시대회
##시럽
뿅
##주운
방종
##봣다
스카웃
꾀할
또박또박
간판스타
##비앤비
부녀회
##프레
##...!!
##sns
얼빵
양성소
sky
wto
233
벼농사
##넘어지
강제집행
##정차
야심작
분단국가
##얔ㅋㅋ
경복
잠겼
세네갈
탄천
후생
판매로
얼짱
싱겁
수용자
저그
##보충
전자팔찌
##다우
한뜻
튕겨
272
바닥재
꿈틀거리
몸체
##소다
치어리더
셰일
커피믹스
##메이저
새로움
버틴다
##시궁창
스탈
##우자의
자차
##코스피
과중
웨스턴
CB
벌렁
화딱지
켕기
##수로
##핸드볼
마감재
설기현
4700
프로게이머
##업주
##아가씨
##NSC
출렁이
아우크스부르크
##바그
범했
간사장
255
하이테크
##났었
그닥
오메
딸려서
작목
사별
붐볐
답안지
분원
여종
##발아
대범
인류애
성업
##NFC
심해진
양로원
##전염
##예총
##시크릿
배드
뒷배경
##다닌다고
문화원
##타전
##西
웰스
##280
화자
비웠
평양냉면
늘어진
백년대계
권혁
##배포
생태관광
##렇
잡배
Sbs
MICE
구축함
##침묵
##남조선
##공은
노가리
추우
시황제
꼬막
집단지
갈아치
##포커스
죽을죄
##띄우
청야
전력난
연근
##비비
교수진
##2600
산세
##코퍼레이션
##소식통
억누르
카네이션
애벌레
사각형
##법부
##그니까
변태성
##오를
##러서
마네킹
단골손님
##보상비
쉰다
꾸릴
극구
##선호
##됏
##내미
##만일
열병
애처롭
##만료
DSR
영락없
##치려
깐다
유흥가
초청장
김보름
베컴
##공작원
추인
고풍
터프
오지환
펄쩍
저울
함경도
IFRS
경인고속도로
새겼
문방
##슈팅
##모나코
가구주
장롱
##조율
재탄생
브라보
나전칠기
칩거
##횡
어딘데
##미향
##!?!
번인
##부석
지껄
깨뜨리
BB
냉담
##싸이
무증
##가락
쬐끔
덮인
시르
시형
##김영란
구자욱
무너뜨릴
뒤흔든
##기독
##빨러
설라
전창진
아이라인
하키
김주
##칼럼
봉안
유고
##리프트
##식장
김선
##알프스
유속
##이빨
파지
과욕
친화력
수애
토리노
도체
족발이
냉수
닫히
##두리
부추길
부추겨서
##ㅊㅊ
훙
압송
송해
단무지
##108
홀가분
제형
단거
밥상머리
##기시
추서
밀려서
##꺼려
##정상급
##준다며
말초
##소유자
반상회
##이과
##절개
##펠
지킬려고
영양군
연락도
맹점
이따금
헤리티지
이뤄지며
알약
메이플
심려
더스틴
필요시
##참치
에브리
##잡화
##탄력
뿌려야
깜박
##훨씬
##할순
##금내
##여긴
##사법연수원
##주간지
어린이재단
동면
중차대
대가야
불태웠
한반도기
국민대표
##심인
##둡시다
교비
##의가
걸렀
버거킹
##여행자
푸근
##최저임금
빌빌거리
고농도
##중진
널찍
##농원
틴트
마더
동서양
##승차
##접근
청송군
쌩쌩
귀천
##권력자
문젠
##살내
피크닉
이정민
##타스
방조제
날아들
침낭
덥석
임진
##동동
그까
습니다
##대축제
##産
도살장
##리호
집시법
한컴
##계인
흩어진
총궐기
영구히
##민도
드린
극본
까다로워
뽐낸다
돕지
벽체
친위
마힌드라
##코오롱
이길까
종인
앗싸
##능겨
##착륙
주성분
두근두근
페덱스
파수
원미
어쩐
##무관
##걸기
안전시설
방방
좌경
😡
조제
##의제
##比
내원
문짝
정회원
할망
##당기
##볼턴
제리
##CIA
##칭했
져서
##화웨이
서대
장염
##방면
성탄
##반시
##????????????
감독관
##쿄
##거두
돈키호테
##者
##임안
순손실
방문단
설렌다
##^^*
꼴아박
##순환고
턱걸이
할로윈
해남군
졸음운전
휴가비
##스트라이크
갖다대
시중금리
초법
##아서라도
##김정
##래이
구녕
노스
##태권
반동분자
활성산소
에둘러
##지당
강공
##소자
하난
##그곳
##ㄲㅋㅋ
##!!!!!!!!!!!!!!
##국도
##번개
##관여
갇혀서
##지켜야
초교
##머티
일약
##란도
소탐대실
##퀴즈
##대어
##애니메이션
과금
망가뜨린
광대뼈
신동아
##어려움
##킬러
아이라이너
영령
##승용차
##캠핑
형제자매
행해
##병과
급소
챗
##드로
만지작
...........
~~!!
던전
##앓
플립
다무
##몰카
쿠르드
올라감
##~!?
돋보기
마산시
주원료
##ATM
김중수
야영장
힝
퇘
붙잡힌
##1970
062
느낀다고
##도망
돼지국밥
여린
양씨
장난친
다운재킷
##토끼
보탤
9500
곤지암
로스팅
전패
위닝
오마이갓
##절단
유지관리
전원책
##사물
염경엽
##러니
##애끼
##좀은
##양상
경구
롯데칠성
슬로바키아
본예산
초상권
##CT
아고라
거뜬히
소유물
박태
탈옥
진취
주물
##바라보
염라대왕
카아
윤빛가람
닭갈비
코디네이터
잊혀진
스타일리스트
##설과
##감독관
##매미
커머스
피란
발만
자금줄
##세척
##정수장
믿음직
방부제
##CGT
안대희
드려요
프로젝터
거들먹거리
거요
살린다고
km
덕수
##어벤져스
##소사이어티
전력망
##자위대
의문사
##잠재력
증거보존
달군
삼국유사
##채취
직제
##黨
집사람
나가수
##기틀
##치하
나이롱
간선
근해
##결핍
##부비
501
진도군
총면적
깬다
베네치아
##우신
초가삼간
##캥
꿀맛
KIST
들켜서
공군기지
픽션
##낼지
리프
##멘토
##박아
##밀수
##준수
##고액
내린다고
꾸려진
어엿
뒷맛
녹내장
장맛비
경기일보
도랑
손민한
##반환
##자시
혹자
어깨동무
##미라
##몽골
##後
자영
이용찬
앞장설
쾅
이재만
뛰쳐나올
흉수
살상력
모나리자
촬영소
탄약통
픽업트럭
모의전
공군사관학교
해군사관학교
낙법
오버로크
근엄
몸가짐
비브라늄
우주여행
곤색
슬레이어
비스킷
전족
대기업
스탠리
흡습성
##부러워
중앙역
오프로드
도형
##사각형
플레잉
자기소개서
##사관학교
육군사관학교
꾸러기
팥빙수
##빙수
감염증
연출력
영상미
서스펜스
졸작
망작
부라릴때
쓰러짐
킬링타임
이상해
타란티노
종방
막방
존잘
죽치고
왠만해서
흡입력
재개봉
싸움판
애니매이션
재밓당
구리지
모든게
연속극
ost
개작살
개연성
연기파
외국판
빠순이
표현법
##펭귄
원탁
패자부활전
부다페스트
노잼
##노잼
어마어마한
흘러도
짜가
말랑
센세이션
개답답
스피디
신파
경극
스킨헤드
신남
귀요미
촌동네
상영물
평작
고스란이
낰였다
슬펐던
파인거
뽀글이
라틴어
릴렉스
위메프
그램
짬짬히
맴매
립싱크
개웃겨
귀여웤
물회
확대경
서린
전형적인
카타르시스
ufo
주성치
좋았다
지루함
완성본
전차부대
좀비
좀비물
어딧노
늘어짐
꾸밈
저수지
씐나
최곤데
삼만리
감상문
볼만함
비됴
쇼핑백
케릭터
하이틴
말이얌
젛아
감상평
시퀸스
버러지
안무서움
안어울림
스펙타클
부탄가스
cg
으리
신나고
미확인
하숙집
하숙
심오한
심오
굶주렸
녹아든
하숙생
##학년생
괜찬아
##렷다
캐시백
출첵
만보기
엔진오일
지마켓
제휴사
기프티콘
마케터
준대서
상담사
ARS
감염증
ERP
VDI
vdi
VPN
ppt
lock
pdf
PDF
포워딩
텔레콤
아웃룩
도메인
뽀시래기
빠른데
우왕
쏘리
안녕히
헬프
ㅎㅇ
오래간만
하이염
캐쉬백
캐쉬
오락실
mt
사천성
오사라
미적립
디펜스
룰렛
시팔
로보트
캐시백
스토리지
APP
플로우
패스워드
무선랜
사물함
SAP
HDMI
DVI
RGB
클립
내선번호
졸려
클레임
나뻐
때려쳐
후지네
버그
최애
기요미
헬로우
푸시
법카
구함
현금화
급전개
해리포터
어설픔
잔재주
떡실신
원주율
졸려서
견자단
킬링
성냥
재밌다
디카프리오
먹먹해
타짜
룸메
룸메이트
ㅎㅌㅊ
ㅍㅌㅊ
ㅅㅌㅊ
울버린
버켓리스트
이펙트
추적자
에로
개살구
스필버그
발연기
쩌러
HSBC
사나운
보도국
오프사이드
침입자
매일유업
오존
대여점
자갈치
자영업자
지피지기
초신성
초겨울
전국민
스마일게이트
감찰관
가녀린
접대비
밀리터리
케이웨더
향기로운
응집
브이넥
챔스
YMCA
잔여분
버클리
탐사선
해안포
미망인
쇄신파
직류
현수교
솟대
비듬
카운슬링
송사리
왜소한
수필가
이승복
말보로
자취방
엔씨소프트
이윽고
청포도
벌초
청춘스타
과묵
농식품부
후식
감별사
미슐랭